#include "magic_wand_model_data.h"


// We need to keep the data array aligned on some architectures.

#ifdef __has_attribute

#define HAVE_ATTRIBUTE(x) __has_attribute(x)

#else

#define HAVE_ATTRIBUTE(x) 0

#endif

#if HAVE_ATTRIBUTE(aligned) || (defined(__GNUC__) && !defined(__clang__))

#define DATA_ALIGN_ATTRIBUTE __attribute__((aligned(4)))

#else

#define DATA_ALIGN_ATTRIBUTE

#endif


const unsigned char g_magic_wand_model_data[] DATA_ALIGN_ATTRIBUTE = {0x08, 0x00, 0x00, 0x00, 0x54, 0x46, 0x4c, 0x33, 0x62, 0xff, 0xff, 0xff,
  0x03, 0x00, 0x00, 0x00, 0x10, 0x00, 0x00, 0x00, 0x24, 0x00, 0x00, 0x00,
  0x78, 0x00, 0x00, 0x00, 0x24, 0x00, 0x00, 0x00, 0x05, 0x00, 0x00, 0x00,
  0x78, 0x05, 0x00, 0x00, 0xb0, 0x04, 0x00, 0x00, 0xe0, 0x02, 0x00, 0x00,
  0x60, 0x02, 0x00, 0x00, 0x54, 0x01, 0x00, 0x00, 0x01, 0x00, 0x00, 0x00,
  0x78, 0x00, 0x00, 0x00, 0x13, 0x00, 0x00, 0x00, 0x18, 0x30, 0x00, 0x00,
  0x14, 0x30, 0x00, 0x00, 0x20, 0x2f, 0x00, 0x00, 0xa8, 0x2e, 0x00, 0x00,
  0x3c, 0x2e, 0x00, 0x00, 0xec, 0x11, 0x00, 0x00, 0x98, 0x10, 0x00, 0x00,
  0xbc, 0x0e, 0x00, 0x00, 0x60, 0x06, 0x00, 0x00, 0xfc, 0x05, 0x00, 0x00,
  0x78, 0x05, 0x00, 0x00, 0xec, 0x2f, 0x00, 0x00, 0xe8, 0x2f, 0x00, 0x00,
  0xe4, 0x2f, 0x00, 0x00, 0xe0, 0x2f, 0x00, 0x00, 0xdc, 0x2f, 0x00, 0x00,
  0xd8, 0x2f, 0x00, 0x00, 0xd4, 0x2f, 0x00, 0x00, 0xd0, 0x2f, 0x00, 0x00,
  0x0f, 0x00, 0x00, 0x00, 0x4d, 0x4c, 0x49, 0x52, 0x20, 0x43, 0x6f, 0x6e,
  0x76, 0x65, 0x72, 0x74, 0x65, 0x64, 0x2e, 0x00, 0x00, 0x00, 0x0e, 0x00,
  0x18, 0x00, 0x04, 0x00, 0x08, 0x00, 0x0c, 0x00, 0x10, 0x00, 0x14, 0x00,
  0x0e, 0x00, 0x00, 0x00, 0x14, 0x00, 0x00, 0x00, 0x5c, 0x00, 0x00, 0x00,
  0x60, 0x00, 0x00, 0x00, 0x64, 0x00, 0x00, 0x00, 0x84, 0x00, 0x00, 0x00,
  0x12, 0x00, 0x00, 0x00, 0x48, 0x2f, 0x00, 0x00, 0xe4, 0x2e, 0x00, 0x00,
  0x3c, 0x2e, 0x00, 0x00, 0xd8, 0x2d, 0x00, 0x00, 0x70, 0x2d, 0x00, 0x00,
  0x1c, 0x11, 0x00, 0x00, 0xc0, 0x0f, 0x00, 0x00, 0xe4, 0x0d, 0x00, 0x00,
  0xa0, 0x05, 0x00, 0x00, 0x3c, 0x05, 0x00, 0x00, 0xb0, 0x04, 0x00, 0x00,
  0xe8, 0x03, 0x00, 0x00, 0x38, 0x03, 0x00, 0x00, 0xa4, 0x02, 0x00, 0x00,
  0x10, 0x02, 0x00, 0x00, 0x90, 0x01, 0x00, 0x00, 0xfc, 0x00, 0x00, 0x00,
  0x80, 0x00, 0x00, 0x00, 0x01, 0x00, 0x00, 0x00, 0x00, 0x00, 0x00, 0x00,
  0x01, 0x00, 0x00, 0x00, 0x11, 0x00, 0x00, 0x00, 0x08, 0x00, 0x00, 0x00,
  0x1c, 0x04, 0x00, 0x00, 0x58, 0x03, 0x00, 0x00, 0xc8, 0x02, 0x00, 0x00,
  0x24, 0x02, 0x00, 0x00, 0xac, 0x01, 0x00, 0x00, 0x10, 0x01, 0x00, 0x00,
  0x94, 0x00, 0x00, 0x00, 0x10, 0x00, 0x00, 0x00, 0x04, 0x00, 0x00, 0x00,
  0x6d, 0x61, 0x69, 0x6e, 0x00, 0x00, 0x00, 0x00, 0x8e, 0xff, 0xff, 0xff,
  0x00, 0x00, 0x00, 0x09, 0x04, 0x00, 0x00, 0x00, 0x1c, 0x00, 0x00, 0x00,
  0x10, 0x00, 0x00, 0x00, 0x04, 0x00, 0x00, 0x00, 0x0a, 0xd2, 0xff, 0xff,
  0x00, 0x00, 0x80, 0x3f, 0x01, 0x00, 0x00, 0x00, 0x11, 0x00, 0x00, 0x00,
  0x01, 0x00, 0x00, 0x00, 0x10, 0x00, 0x00, 0x00, 0xf6, 0xfb, 0xff, 0xff,
  0x00, 0x00, 0x00, 0x19, 0x01, 0x00, 0x00, 0x00, 0x8a, 0xd1, 0xff, 0xff,
  0x10, 0x00, 0x00, 0x00, 0x12, 0x00, 0x00, 0x00, 0x14, 0x00, 0x00, 0x00,
  0x20, 0x00, 0x00, 0x00, 0x02, 0x00, 0x00, 0x00, 0x01, 0x00, 0x00, 0x00,
  0x04, 0x00, 0x00, 0x00, 0x08, 0x00, 0x00, 0x00, 0x49, 0x64, 0x65, 0x6e,
  0x74, 0x69, 0x74, 0x79, 0x00, 0x00, 0x00, 0x00, 0xc4, 0xd1, 0xff, 0xff,
  0x00, 0x00, 0x0e, 0x00, 0x18, 0x00, 0x08, 0x00, 0x0c, 0x00, 0x10, 0x00,
  0x07, 0x00, 0x14, 0x00, 0x0e, 0x00, 0x00, 0x00, 0x00, 0x00, 0x00, 0x08,
  0x03, 0x00, 0x00, 0x00, 0x18, 0x00, 0x00, 0x00, 0x0c, 0x00, 0x00, 0x00,
  0x04, 0x00, 0x00, 0x00, 0x98, 0xd1, 0xff, 0xff, 0x01, 0x00, 0x00, 0x00,
  0x10, 0x00, 0x00, 0x00, 0x03, 0x00, 0x00, 0x00, 0x0f, 0x00, 0x00, 0x00,
  0x05, 0x00, 0x00, 0x00, 0x02, 0x00, 0x00, 0x00, 0x02, 0xd2, 0xff, 0xff,
  0x10, 0x00, 0x00, 0x00, 0x11, 0x00, 0x00, 0x00, 0x14, 0x00, 0x00, 0x00,
  0x30, 0x00, 0x00, 0x00, 0x02, 0x00, 0x00, 0x00, 0x01, 0x00, 0x00, 0x00,
  0x04, 0x00, 0x00, 0x00, 0x1a, 0x00, 0x00, 0x00, 0x73, 0x65, 0x71, 0x75,
  0x65, 0x6e, 0x74, 0x69, 0x61, 0x6c, 0x2f, 0x64, 0x65, 0x6e, 0x73, 0x65,
  0x5f, 0x31, 0x2f, 0x42, 0x69, 0x61, 0x73, 0x41, 0x64, 0x64, 0x00, 0x00,
  0xf4, 0xd1, 0xff, 0xff, 0xd6, 0xfd, 0xff, 0xff, 0x00, 0x00, 0x00, 0x08,
  0x03, 0x00, 0x00, 0x00, 0x24, 0x00, 0x00, 0x00, 0x18, 0x00, 0x00, 0x00,
  0x0c, 0x00, 0x00, 0x00, 0x00, 0x00, 0x06, 0x00, 0x08, 0x00, 0x07, 0x00,
  0x06, 0x00, 0x00, 0x00, 0x00, 0x00, 0x00, 0x01, 0x01, 0x00, 0x00, 0x00,
  0x0f, 0x00, 0x00, 0x00, 0x03, 0x00, 0x00, 0x00, 0x0e, 0x00, 0x00, 0x00,
  0x04, 0x00, 0x00, 0x00, 0x01, 0x00, 0x00, 0x00, 0xfe, 0xfc, 0xff, 0xff,
  0x00, 0x00, 0x00, 0x09, 0x01, 0x00, 0x00, 0x00, 0x92, 0xd2, 0xff, 0xff,
  0x10, 0x00, 0x00, 0x00, 0x10, 0x00, 0x00, 0x00, 0x14, 0x00, 0x00, 0x00,
  0x2c, 0x00, 0x00, 0x00, 0x02, 0x00, 0x00, 0x00, 0x01, 0x00, 0x00, 0x00,
  0x10, 0x00, 0x00, 0x00, 0x15, 0x00, 0x00, 0x00, 0x73, 0x65, 0x71, 0x75,
  0x65, 0x6e, 0x74, 0x69, 0x61, 0x6c, 0x2f, 0x64, 0x65, 0x6e, 0x73, 0x65,
  0x2f, 0x52, 0x65, 0x6c, 0x75, 0x00, 0x00, 0x00, 0xd8, 0xd2, 0xff, 0xff,
  0x00, 0x00, 0x0a, 0x00, 0x10, 0x00, 0x04, 0x00, 0x08, 0x00, 0x0c, 0x00,
  0x0a, 0x00, 0x00, 0x00, 0x02, 0x00, 0x00, 0x00, 0x10, 0x00, 0x00, 0x00,
  0x04, 0x00, 0x00, 0x00, 0x01, 0x00, 0x00, 0x00, 0x0e, 0x00, 0x00, 0x00,
  0x02, 0x00, 0x00, 0x00, 0x0d, 0x00, 0x00, 0x00, 0x03, 0x00, 0x00, 0x00,
  0x7a, 0xfd, 0xff, 0xff, 0x00, 0x00, 0x00, 0x16, 0x01, 0x00, 0x00, 0x00,
  0x0e, 0xd3, 0xff, 0xff, 0x10, 0x00, 0x00, 0x00, 0x0f, 0x00, 0x00, 0x00,
  0x14, 0x00, 0x00, 0x00, 0x30, 0x00, 0x00, 0x00, 0x02, 0x00, 0x00, 0x00,
  0x01, 0x00, 0x00, 0x00, 0x70, 0x00, 0x00, 0x00, 0x1a, 0x00, 0x00, 0x00,
  0x73, 0x65, 0x71, 0x75, 0x65, 0x6e, 0x74, 0x69, 0x61, 0x6c, 0x2f, 0x66,
  0x6c, 0x61, 0x74, 0x74, 0x65, 0x6e, 0x2f, 0x52, 0x65, 0x73, 0x68, 0x61,
  0x70, 0x65, 0x00, 0x00, 0x00, 0xd3, 0xff, 0xff, 0xe2, 0xfe, 0xff, 0xff,
  0x00, 0x00, 0x00, 0x05, 0x01, 0x00, 0x00, 0x00, 0x38, 0x00, 0x00, 0x00,
  0x2c, 0x00, 0x00, 0x00, 0x14, 0x00, 0x00, 0x00, 0x00, 0x00, 0x0e, 0x00,
  0x14, 0x00, 0x00, 0x00, 0x10, 0x00, 0x0c, 0x00, 0x08, 0x00, 0x04, 0x00,
  0x0e, 0x00, 0x00, 0x00, 0x03, 0x00, 0x00, 0x00, 0x01, 0x00, 0x00, 0x00,
  0x03, 0x00, 0x00, 0x00, 0x01, 0x00, 0x00, 0x00, 0x01, 0x00, 0x00, 0x00,
  0x0d, 0x00, 0x00, 0x00, 0x01, 0x00, 0x00, 0x00, 0x0c, 0x00, 0x00, 0x00,
  0x9e, 0xd3, 0xff, 0xff, 0x10, 0x00, 0x00, 0x00, 0x0e, 0x00, 0x00, 0x00,
  0x1c, 0x00, 0x00, 0x00, 0x40, 0x00, 0x00, 0x00, 0x04, 0x00, 0x00, 0x00,
  0x01, 0x00, 0x00, 0x00, 0x07, 0x00, 0x00, 0x00, 0x01, 0x00, 0x00, 0x00,
  0x10, 0x00, 0x00, 0x00, 0x22, 0x00, 0x00, 0x00, 0x73, 0x65, 0x71, 0x75,
  0x65, 0x6e, 0x74, 0x69, 0x61, 0x6c, 0x2f, 0x6d, 0x61, 0x78, 0x5f, 0x70,
  0x6f, 0x6f, 0x6c, 0x69, 0x6e, 0x67, 0x32, 0x64, 0x5f, 0x31, 0x2f, 0x4d,
  0x61, 0x78, 0x50, 0x6f, 0x6f, 0x6c, 0x00, 0x00, 0xa0, 0xd3, 0xff, 0xff,
  0xc2, 0xfe, 0xff, 0xff, 0x00, 0x00, 0x00, 0x01, 0x24, 0x00, 0x00, 0x00,
  0x18, 0x00, 0x00, 0x00, 0x04, 0x00, 0x00, 0x00, 0xb4, 0xfe, 0xff, 0xff,
  0x01, 0x00, 0x00, 0x00, 0x01, 0x00, 0x00, 0x00, 0x00, 0x00, 0x00, 0x01,
  0x01, 0x00, 0x00, 0x00, 0x0c, 0x00, 0x00, 0x00, 0x03, 0x00, 0x00, 0x00,
  0x0b, 0x00, 0x00, 0x00, 0x07, 0x00, 0x00, 0x00, 0x09, 0x00, 0x00, 0x00,
  0x2e, 0xd4, 0xff, 0xff, 0x10, 0x00, 0x00, 0x00, 0x0d, 0x00, 0x00, 0x00,
  0x1c, 0x00, 0x00, 0x00, 0x2c, 0x00, 0x00, 0x00, 0x04, 0x00, 0x00, 0x00,
  0x01, 0x00, 0x00, 0x00, 0x15, 0x00, 0x00, 0x00, 0x01, 0x00, 0x00, 0x00,
  0x10, 0x00, 0x00, 0x00, 0x0c, 0x00, 0x00, 0x00, 0x74, 0x66, 0x6c, 0x2e,
  0x63, 0x6f, 0x6e, 0x76, 0x5f, 0x32, 0x64, 0x31, 0x00, 0x00, 0x00, 0x00,
  0x74, 0xd4, 0xff, 0xff, 0x00, 0x00, 0x0e, 0x00, 0x1a, 0x00, 0x08, 0x00,
  0x0c, 0x00, 0x10, 0x00, 0x07, 0x00, 0x14, 0x00, 0x0e, 0x00, 0x00, 0x00,
  0x00, 0x00, 0x00, 0x05, 0x01, 0x00, 0x00, 0x00, 0x3c, 0x00, 0x00, 0x00,
  0x30, 0x00, 0x00, 0x00, 0x14, 0x00, 0x00, 0x00, 0x00, 0x00, 0x0e, 0x00,
  0x18, 0x00, 0x17, 0x00, 0x10, 0x00, 0x0c, 0x00, 0x08, 0x00, 0x04, 0x00,
  0x0e, 0x00, 0x00, 0x00, 0x03, 0x00, 0x00, 0x00, 0x03, 0x00, 0x00, 0x00,
  0x03, 0x00, 0x00, 0x00, 0x03, 0x00, 0x00, 0x00, 0x00, 0x00, 0x00, 0x01,
  0x01, 0x00, 0x00, 0x00, 0x0b, 0x00, 0x00, 0x00, 0x01, 0x00, 0x00, 0x00,
  0x0a, 0x00, 0x00, 0x00, 0x46, 0xff, 0xff, 0xff, 0x00, 0x00, 0x00, 0x11,
  0x01, 0x00, 0x00, 0x00, 0xda, 0xd4, 0xff, 0xff, 0x10, 0x00, 0x00, 0x00,
  0x0c, 0x00, 0x00, 0x00, 0x1c, 0x00, 0x00, 0x00, 0x40, 0x00, 0x00, 0x00,
  0x04, 0x00, 0x00, 0x00, 0x01, 0x00, 0x00, 0x00, 0x15, 0x00, 0x00, 0x00,
  0x01, 0x00, 0x00, 0x00, 0x08, 0x00, 0x00, 0x00, 0x20, 0x00, 0x00, 0x00,
  0x73, 0x65, 0x71, 0x75, 0x65, 0x6e, 0x74, 0x69, 0x61, 0x6c, 0x2f, 0x6d,
  0x61, 0x78, 0x5f, 0x70, 0x6f, 0x6f, 0x6c, 0x69, 0x6e, 0x67, 0x32, 0x64,
  0x2f, 0x4d, 0x61, 0x78, 0x50, 0x6f, 0x6f, 0x6c, 0x00, 0x00, 0x00, 0x00,
  0x34, 0xd5, 0xff, 0xff, 0x00, 0x00, 0x0e, 0x00, 0x14, 0x00, 0x00, 0x00,
  0x08, 0x00, 0x0c, 0x00, 0x07, 0x00, 0x10, 0x00, 0x0e, 0x00, 0x00, 0x00,
  0x00, 0x00, 0x00, 0x01, 0x30, 0x00, 0x00, 0x00, 0x24, 0x00, 0x00, 0x00,
  0x10, 0x00, 0x00, 0x00, 0x0c, 0x00, 0x10, 0x00, 0x00, 0x00, 0x04, 0x00,
  0x08, 0x00, 0x0f, 0x00, 0x0c, 0x00, 0x00, 0x00, 0x01, 0x00, 0x00, 0x00,
  0x01, 0x00, 0x00, 0x00, 0x00, 0x00, 0x00, 0x01, 0x01, 0x00, 0x00, 0x00,
  0x0a, 0x00, 0x00, 0x00, 0x03, 0x00, 0x00, 0x00, 0x00, 0x00, 0x00, 0x00,
  0x06, 0x00, 0x00, 0x00, 0x08, 0x00, 0x00, 0x00, 0x00, 0x00, 0x0a, 0x00,
  0x0c, 0x00, 0x07, 0x00, 0x00, 0x00, 0x08, 0x00, 0x0a, 0x00, 0x00, 0x00,
  0x00, 0x00, 0x00, 0x03, 0x01, 0x00, 0x00, 0x00, 0x9e, 0xd5, 0xff, 0xff,
  0x10, 0x00, 0x00, 0x00, 0x0b, 0x00, 0x00, 0x00, 0x1c, 0x00, 0x00, 0x00,
  0x28, 0x00, 0x00, 0x00, 0x04, 0x00, 0x00, 0x00, 0x01, 0x00, 0x00, 0x00,
  0x40, 0x00, 0x00, 0x00, 0x03, 0x00, 0x00, 0x00, 0x08, 0x00, 0x00, 0x00,
  0x0b, 0x00, 0x00, 0x00, 0x74, 0x66, 0x6c, 0x2e, 0x63, 0x6f, 0x6e, 0x76,
  0x5f, 0x32, 0x64, 0x00, 0x88, 0xd5, 0xff, 0xff, 0x7e, 0xd6, 0xff, 0xff,
  0x04, 0x00, 0x00, 0x00, 0x40, 0x00, 0x00, 0x00, 0x5b, 0xd1, 0x5d, 0x40,
  0xcb, 0xc7, 0xec, 0x3f, 0x84, 0x8a, 0x79, 0xbf, 0x36, 0xf6, 0xb1, 0xbf,
  0x22, 0xe9, 0x4b, 0x40, 0xa6, 0xbc, 0xc7, 0x3f, 0x30, 0x5a, 0x9f, 0xbf,
  0x36, 0xf5, 0xd0, 0xbd, 0x9a, 0xaa, 0x31, 0x3f, 0xd7, 0xc6, 0xb0, 0x3f,
  0xa4, 0xd9, 0xb8, 0xbf, 0xa0, 0x3c, 0xec, 0x3f, 0x72, 0xaf, 0x24, 0xbd,
  0x98, 0xfd, 0xd4, 0xbf, 0x90, 0xea, 0x3e, 0xbe, 0xe0, 0x44, 0xf5, 0xbe,
  0x26, 0xd6, 0xff, 0xff, 0x10, 0x00, 0x00, 0x00, 0x0a, 0x00, 0x00, 0x00,
  0x10, 0x00, 0x00, 0x00, 0x20, 0x00, 0x00, 0x00, 0x01, 0x00, 0x00, 0x00,
  0x10, 0x00, 0x00, 0x00, 0x0d, 0x00, 0x00, 0x00, 0x73, 0x74, 0x64, 0x2e,
  0x63, 0x6f, 0x6e, 0x73, 0x74, 0x61, 0x6e, 0x74, 0x31, 0x00, 0x00, 0x00,
  0x08, 0xd6, 0xff, 0xff, 0xfe, 0xd6, 0xff, 0xff, 0x04, 0x00, 0x00, 0x00,
  0x20, 0x00, 0x00, 0x00, 0x24, 0xe6, 0x66, 0xc0, 0x12, 0xb2, 0xf1, 0xbf,
  0x95, 0x92, 0xfe, 0xbf, 0x63, 0x9e, 0x35, 0xc0, 0x88, 0x12, 0xae, 0xbe,
  0xc4, 0xd1, 0x59, 0xc0, 0x58, 0xaf, 0x56, 0xbc, 0x29, 0x2f, 0x33, 0xbe,
  0x86, 0xd6, 0xff, 0xff, 0x10, 0x00, 0x00, 0x00, 0x09, 0x00, 0x00, 0x00,
  0x10, 0x00, 0x00, 0x00, 0x20, 0x00, 0x00, 0x00, 0x01, 0x00, 0x00, 0x00,
  0x08, 0x00, 0x00, 0x00, 0x0c, 0x00, 0x00, 0x00, 0x73, 0x74, 0x64, 0x2e,
  0x63, 0x6f, 0x6e, 0x73, 0x74, 0x61, 0x6e, 0x74, 0x00, 0x00, 0x00, 0x00,
  0x68, 0xd6, 0xff, 0xff, 0x5e, 0xd7, 0xff, 0xff, 0x04, 0x00, 0x00, 0x00,
  0x00, 0x08, 0x00, 0x00, 0x89, 0xa0, 0x0a, 0xbd, 0xd0, 0x42, 0xa8, 0x3c,
  0x39, 0x66, 0x3a, 0x3e, 0x22, 0xcd, 0xf2, 0xbe, 0xd2, 0xda, 0x49, 0xbf,
  0xe7, 0x6d, 0xfb, 0xbd, 0x77, 0xc7, 0x96, 0xbf, 0x80, 0x54, 0x69, 0xbf,
  0x6c, 0xd1, 0x19, 0xbe, 0x91, 0xb8, 0x1f, 0xbd, 0x95, 0xf8, 0x09, 0xbe,
  0x92, 0x96, 0x5b, 0x3d, 0x2f, 0xa9, 0x2d, 0x3f, 0xe6, 0x22, 0xcd, 0x3c,
  0x12, 0x12, 0x8e, 0xbe, 0x3e, 0x7c, 0xbd, 0xbc, 0x1b, 0x70, 0xaa, 0xbe,
  0xa6, 0xa1, 0x84, 0xbe, 0x84, 0x4e, 0xaf, 0xbe, 0x76, 0x9b, 0xe1, 0xbd,
  0x49, 0xf1, 0xd7, 0xbe, 0xd2, 0x9b, 0xcd, 0xbe, 0x57, 0x34, 0xd0, 0xbd,
  0x9c, 0xb4, 0x3d, 0xbc, 0x8c, 0x1d, 0x7d, 0xbe, 0x5c, 0x86, 0xcd, 0xbe,
  0x94, 0xcb, 0x4e, 0xbe, 0x5e, 0x50, 0x61, 0xbe, 0x78, 0xd2, 0x1c, 0xbe,
  0x8c, 0x14, 0x6b, 0xbe, 0x29, 0xce, 0x84, 0xbd, 0xef, 0x4e, 0xe3, 0xbd,
  0x68, 0x55, 0xda, 0xbe, 0x6c, 0x1e, 0xe5, 0xbe, 0xcd, 0x6e, 0xc0, 0xbe,
  0x7a, 0x24, 0x00, 0xbf, 0x1e, 0x71, 0x74, 0xbe, 0xf3, 0xe0, 0xe0, 0xbe,
  0xb5, 0xe2, 0x38, 0xbe, 0xae, 0xdd, 0x66, 0xbe, 0x6f, 0x2e, 0x80, 0xbe,
  0x02, 0x5e, 0x89, 0xbe, 0x0d, 0xad, 0x7f, 0xbe, 0xaa, 0x9f, 0x14, 0xbe,
  0xca, 0xc7, 0x41, 0x3e, 0x6e, 0xc2, 0x11, 0xbe, 0x31, 0xb3, 0x4b, 0x3e,
  0x9f, 0xed, 0x4a, 0x3e, 0xe0, 0x85, 0x92, 0xbc, 0x1c, 0x36, 0xb2, 0xbd,
  0xcd, 0x62, 0xcb, 0x3e, 0x77, 0x0c, 0x25, 0xbd, 0x93, 0x4a, 0x19, 0x3d,
  0x17, 0xf1, 0x84, 0x3e, 0x7f, 0xc3, 0x64, 0xbd, 0xa9, 0x92, 0xe4, 0xbd,
  0x83, 0x8c, 0x17, 0x3e, 0x43, 0x34, 0x94, 0x3d, 0x1c, 0x77, 0x2a, 0x3e,
  0x6c, 0x30, 0x70, 0x3d, 0xc2, 0x85, 0x0a, 0x3e, 0x0c, 0x03, 0xb1, 0x3d,
  0xe8, 0xba, 0x40, 0x3d, 0x0e, 0x4e, 0xe8, 0x3d, 0xe2, 0x4a, 0x03, 0xbe,
  0xe2, 0x23, 0xaa, 0x3b, 0x77, 0x58, 0x99, 0x3d, 0x39, 0x9a, 0x2c, 0xbd,
  0x44, 0xdf, 0x06, 0xbe, 0x20, 0x1e, 0xb1, 0x3d, 0x6b, 0x16, 0x0f, 0xbe,
  0x76, 0x70, 0x45, 0xbd, 0xe4, 0x65, 0xea, 0x3e, 0xe4, 0x9c, 0x48, 0xbe,
  0xec, 0x36, 0xb1, 0x3c, 0xb1, 0xca, 0xea, 0xbd, 0x1d, 0xf1, 0x2a, 0xbe,
  0x34, 0x0c, 0xe1, 0x3e, 0x4d, 0xab, 0xac, 0xbe, 0x69, 0x79, 0xa1, 0xbe,
  0x9b, 0x9d, 0x8f, 0xbd, 0x91, 0x4f, 0x92, 0xbd, 0xb3, 0x94, 0xea, 0xbe,
  0x33, 0xf6, 0xaa, 0x3c, 0x26, 0x1a, 0x18, 0xbd, 0x33, 0x51, 0xba, 0xbe,
  0x8f, 0x25, 0x86, 0x3e, 0x70, 0xf9, 0x21, 0xbd, 0xb3, 0x6e, 0x81, 0xbe,
  0xbd, 0x79, 0xf9, 0xbd, 0xbb, 0x83, 0x74, 0xbe, 0xfa, 0x21, 0x9d, 0x3c,
  0x65, 0xa5, 0xed, 0x3d, 0x7f, 0x4b, 0xc0, 0xbe, 0xf4, 0x7f, 0x4e, 0x3e,
  0x3f, 0x0d, 0x99, 0x3d, 0xaa, 0x8c, 0x00, 0xbe, 0xe2, 0xbc, 0x10, 0xbd,
  0xd8, 0xe1, 0x68, 0x3d, 0xb0, 0x3d, 0xe2, 0xbe, 0xfa, 0x71, 0x53, 0xbf,
  0x57, 0x57, 0xb6, 0xbd, 0x37, 0xe6, 0x83, 0xbf, 0x65, 0x2b, 0x94, 0xbf,
  0x81, 0xf9, 0x2d, 0x3e, 0x24, 0x6a, 0x8c, 0xbd, 0x01, 0xa7, 0x44, 0x3e,
  0x3c, 0xb7, 0xb2, 0xbe, 0x94, 0x8a, 0x22, 0xbf, 0x74, 0x78, 0xf0, 0x3d,
  0x52, 0x9a, 0xd1, 0xbf, 0xd0, 0x0e, 0xdb, 0xbf, 0xce, 0x38, 0x8a, 0xbd,
  0x9f, 0x69, 0xb8, 0xbd, 0x6f, 0xe5, 0x75, 0xbe, 0x0a, 0x24, 0x90, 0x3e,
  0xfd, 0x8c, 0x18, 0x3d, 0x46, 0x7a, 0x04, 0x3d, 0xe8, 0xf4, 0x17, 0xbe,
  0x1d, 0xef, 0xdc, 0x3e, 0x69, 0xca, 0x5c, 0xbc, 0xe9, 0xc1, 0x89, 0x3d,
  0xf6, 0x57, 0x5f, 0xbe, 0x9c, 0x48, 0xbe, 0x3d, 0x0b, 0xd0, 0xde, 0x3c,
  0x1c, 0xcd, 0x01, 0x3e, 0x2e, 0xce, 0xd2, 0xbd, 0x75, 0x2b, 0xd0, 0x3e,
  0xd1, 0xa4, 0xf4, 0x3d, 0xe5, 0x39, 0xc5, 0xbe, 0x80, 0x63, 0x17, 0xbe,
  0xbb, 0x78, 0x24, 0xbd, 0xa4, 0x8d, 0x93, 0x3e, 0x90, 0xa8, 0x39, 0xbe,
  0xf2, 0x36, 0x50, 0x3e, 0x38, 0x5c, 0x19, 0xbe, 0x60, 0x0a, 0x73, 0xbe,
  0x2f, 0x8c, 0x0a, 0xbf, 0x81, 0x50, 0x55, 0xbd, 0xf0, 0xf3, 0x22, 0xbd,
  0xa7, 0x1d, 0xe1, 0x3c, 0x48, 0x78, 0x24, 0xbe, 0x67, 0xf2, 0x3a, 0xbd,
  0x03, 0x4d, 0xaf, 0xbd, 0x9b, 0x48, 0xd8, 0xbd, 0x5a, 0xe3, 0x57, 0xbe,
  0xc5, 0xb0, 0xee, 0x3d, 0x66, 0x16, 0x4c, 0xbe, 0x5c, 0xb8, 0x9e, 0xbd,
  0x68, 0xc5, 0xac, 0x3d, 0x6f, 0x2c, 0x69, 0xbc, 0x30, 0xbb, 0xab, 0xbc,
  0xa6, 0xdd, 0x29, 0xbd, 0xe8, 0x9d, 0x8e, 0xbd, 0xf3, 0xe5, 0x5a, 0x3e,
  0xc7, 0x6a, 0x40, 0xbe, 0x1c, 0xa6, 0x19, 0xbe, 0x89, 0xc9, 0xf9, 0x3d,
  0xd3, 0x62, 0xc4, 0xbd, 0xe0, 0x94, 0x85, 0xbe, 0x23, 0x56, 0xdf, 0xbe,
  0xea, 0x56, 0x91, 0xbe, 0x66, 0x3e, 0xb8, 0xbe, 0x60, 0x15, 0x9a, 0xbc,
  0xae, 0x53, 0xc7, 0xbe, 0xe4, 0x3e, 0x92, 0xbe, 0xdd, 0x1f, 0x13, 0xbf,
  0x31, 0xe6, 0x05, 0x3d, 0x36, 0xa3, 0x58, 0xbb, 0x41, 0x0f, 0x97, 0x3e,
  0x35, 0x8f, 0x0e, 0xbf, 0xb2, 0x20, 0xa6, 0xbd, 0xdb, 0xf6, 0xe2, 0xbe,
  0x24, 0x51, 0xd6, 0x3c, 0x97, 0xfb, 0xfb, 0xbe, 0xb2, 0x79, 0xb3, 0xbe,
  0xbc, 0xe9, 0x5d, 0xbd, 0xf4, 0xe1, 0xc0, 0x3e, 0x54, 0x60, 0xab, 0x3d,
  0xc9, 0x24, 0x81, 0xbc, 0x8d, 0xa1, 0xb1, 0xbc, 0x85, 0x01, 0x10, 0x3c,
  0x92, 0xce, 0x1d, 0x3e, 0xe3, 0x3b, 0x50, 0x3d, 0x0b, 0x99, 0xd3, 0x3b,
  0x01, 0x94, 0xa3, 0x3d, 0xe7, 0xd9, 0x07, 0x3e, 0x6e, 0x61, 0x0e, 0x3d,
  0xd6, 0xc0, 0x4f, 0xbb, 0xbb, 0xcb, 0x81, 0x3d, 0xe0, 0x95, 0xba, 0xbc,
  0x6b, 0xf2, 0x68, 0x3d, 0xcb, 0x88, 0x5a, 0xbd, 0x13, 0xb0, 0x20, 0xbe,
  0x59, 0xd3, 0x11, 0x3f, 0x61, 0x7d, 0x07, 0xbf, 0x0c, 0xb2, 0x48, 0xbf,
  0xe7, 0x8d, 0x48, 0xbe, 0x80, 0x7f, 0x40, 0xbf, 0x74, 0x2a, 0xf3, 0xbf,
  0xd7, 0x08, 0x74, 0xbd, 0xbf, 0xab, 0x1b, 0xbe, 0xb3, 0x25, 0xff, 0x3c,
  0x81, 0x4f, 0x3f, 0xbe, 0x8b, 0x18, 0x70, 0xbe, 0x69, 0xb2, 0xb4, 0xbd,
  0xbb, 0x85, 0xfd, 0xbe, 0x7e, 0x41, 0x7b, 0xbf, 0x13, 0x44, 0x98, 0xbd,
  0x72, 0x94, 0xe1, 0x3e, 0x44, 0xc9, 0x28, 0xbe, 0xad, 0x2f, 0x96, 0xbd,
  0x88, 0xe8, 0x88, 0xbc, 0x9e, 0xe2, 0xdc, 0xbd, 0xee, 0x6b, 0x31, 0x3d,
  0xe1, 0x90, 0xed, 0x3b, 0xe7, 0xe1, 0xc9, 0xbd, 0xec, 0x6e, 0x05, 0xbd,
  0xac, 0xa1, 0x02, 0xbe, 0x7b, 0xfb, 0xba, 0x3e, 0x69, 0x69, 0x15, 0xbd,
  0xe2, 0xb6, 0xe4, 0xbb, 0x35, 0x7d, 0x33, 0xbd, 0xcd, 0xa5, 0xef, 0x3d,
  0x89, 0x02, 0x90, 0xbd, 0x1c, 0xdc, 0x2b, 0x3e, 0x81, 0x86, 0xd8, 0x3e,
  0x9d, 0x2b, 0xb0, 0x3d, 0x2f, 0xfd, 0x0c, 0xbd, 0x0d, 0x56, 0x9a, 0xbd,
  0x54, 0x83, 0xd1, 0x3a, 0xc4, 0xc4, 0x71, 0x3e, 0x85, 0x4e, 0x90, 0xbd,
  0x23, 0x77, 0xf3, 0x3d, 0xde, 0x08, 0xfa, 0xbd, 0x40, 0x51, 0xdd, 0x3c,
  0x9e, 0x91, 0xa2, 0xbb, 0xb7, 0x60, 0x9d, 0x3c, 0xc1, 0x98, 0xbb, 0xbd,
  0x86, 0xa5, 0x41, 0x3e, 0xc6, 0xf6, 0x9d, 0xbd, 0x14, 0xc8, 0xcc, 0xbd,
  0x7b, 0x19, 0x84, 0xbd, 0xe2, 0x83, 0xc8, 0xbc, 0x60, 0x0c, 0x01, 0xbd,
  0x67, 0x3a, 0xb7, 0xbc, 0x8b, 0x0f, 0xb9, 0xbd, 0x29, 0x10, 0x80, 0xbc,
  0x85, 0x83, 0x11, 0xbe, 0x45, 0x36, 0x73, 0xbd, 0xff, 0xb6, 0xbe, 0xbd,
  0x13, 0x33, 0x3b, 0x3b, 0x2b, 0x8e, 0x71, 0xbd, 0x6e, 0xf1, 0x90, 0xbd,
  0x84, 0x04, 0x30, 0xbe, 0xfc, 0xcd, 0xfd, 0x3d, 0x68, 0xf1, 0x13, 0xbf,
  0xa8, 0xb9, 0x52, 0xbe, 0x92, 0xc1, 0x30, 0xbd, 0xcc, 0x30, 0x06, 0xbe,
  0x6e, 0x58, 0x1a, 0xbe, 0x81, 0xc6, 0x95, 0xbc, 0x6b, 0xa9, 0x0e, 0xbe,
  0x1c, 0xad, 0xa3, 0xbd, 0x21, 0xa6, 0xc1, 0xbe, 0xfe, 0x04, 0xed, 0x3e,
  0x00, 0x7c, 0xed, 0x3e, 0x4b, 0x78, 0xb3, 0x3d, 0x27, 0xfe, 0xde, 0xbe,
  0x72, 0x0f, 0xfa, 0x3d, 0xbd, 0x8b, 0x1d, 0x3e, 0xa8, 0x04, 0x4b, 0xbe,
  0x15, 0xd5, 0xbd, 0xbe, 0x36, 0x58, 0x34, 0xbe, 0x60, 0xab, 0x7a, 0xbe,
  0x99, 0xcd, 0xb0, 0x3d, 0xee, 0xee, 0xb3, 0xbc, 0x8e, 0xd5, 0x3b, 0x3e,
  0x8e, 0xda, 0x79, 0xbe, 0x9f, 0xed, 0x7b, 0xbd, 0xec, 0x93, 0xb1, 0xbe,
  0x88, 0xc6, 0xdb, 0xbd, 0x51, 0x7f, 0x00, 0xbe, 0x3f, 0x3a, 0x43, 0x3d,
  0x6b, 0x23, 0x1a, 0x3c, 0xe7, 0xaa, 0x99, 0x3d, 0x60, 0x94, 0x1d, 0xbe,
  0x30, 0x49, 0x54, 0x3d, 0x3b, 0x6a, 0xbd, 0x3e, 0xc1, 0xb3, 0x96, 0x3c,
  0xe3, 0x03, 0x10, 0xbd, 0xa2, 0xc8, 0xe5, 0x3d, 0x1c, 0xa8, 0x29, 0x3e,
  0xb1, 0xd7, 0x8c, 0xbb, 0x4f, 0xa6, 0x88, 0x3d, 0xa8, 0x10, 0x94, 0xbd,
  0xb6, 0x13, 0x53, 0xbd, 0x64, 0x5b, 0xa1, 0xbd, 0xee, 0x11, 0xc5, 0xbd,
  0x9a, 0xa7, 0x64, 0xbd, 0xb3, 0x6e, 0x2c, 0xbc, 0x10, 0xa7, 0xcc, 0xbd,
  0x94, 0x53, 0xbd, 0x3e, 0x69, 0xeb, 0x11, 0xbe, 0xc9, 0x96, 0x01, 0xbe,
  0x65, 0x09, 0x19, 0xbe, 0xfa, 0x02, 0x88, 0xbd, 0x22, 0xd8, 0x00, 0xbe,
  0x1d, 0x6c, 0x67, 0xbe, 0x58, 0xdb, 0x84, 0xbd, 0xeb, 0x72, 0x84, 0xbe,
  0xaa, 0x68, 0xca, 0xbd, 0x27, 0x0f, 0xf3, 0xbd, 0x08, 0x9a, 0x02, 0xbd,
  0xa9, 0x68, 0xef, 0x3c, 0xfc, 0xf5, 0xbf, 0x3d, 0x47, 0xb2, 0x61, 0xbe,
  0xee, 0xf9, 0x92, 0x3d, 0x42, 0x89, 0x92, 0xbe, 0xfe, 0x70, 0x41, 0x3d,
  0xba, 0x02, 0xfb, 0xbd, 0xed, 0x09, 0x19, 0xbd, 0xfb, 0x0e, 0x50, 0x3a,
  0xf9, 0x1d, 0xb2, 0xbe, 0x59, 0x88, 0x0e, 0xbf, 0xa5, 0xef, 0x35, 0x3c,
  0x04, 0xa2, 0x54, 0xbf, 0xb8, 0xcf, 0x82, 0xbf, 0xe6, 0xa8, 0x97, 0x3c,
  0x4d, 0xd1, 0x31, 0xbe, 0xcc, 0xbe, 0x03, 0x3d, 0x0c, 0x3e, 0x9a, 0xbe,
  0x4f, 0xfa, 0xe1, 0xbe, 0x61, 0x4f, 0x3f, 0xbd, 0xcd, 0x5e, 0x54, 0xbf,
  0x70, 0xa9, 0x30, 0xbf, 0x98, 0x24, 0xe0, 0x3d, 0x12, 0x4f, 0x2a, 0xbd,
  0x7e, 0x58, 0xe5, 0xbd, 0x7a, 0xf3, 0x41, 0x3e, 0xfa, 0x05, 0xbf, 0x3d,
  0x49, 0x71, 0x48, 0x3d, 0x6e, 0x49, 0xe8, 0xbd, 0xba, 0x9a, 0xe4, 0x3d,
  0x88, 0x5c, 0x65, 0x3e, 0x92, 0xb8, 0x9b, 0xbd, 0x09, 0x9f, 0x5c, 0xbe,
  0x95, 0x5a, 0xf9, 0x3d, 0x70, 0x91, 0x15, 0x3f, 0xdc, 0xda, 0xc7, 0x3c,
  0x43, 0x3b, 0x69, 0x3e, 0x69, 0x1d, 0xdd, 0x3b, 0xbe, 0xd3, 0x25, 0x3e,
  0x9b, 0x74, 0x67, 0xbe, 0x9c, 0x17, 0xc4, 0x3e, 0x30, 0xb9, 0x79, 0xbe,
  0xb9, 0x16, 0x80, 0x3c, 0x8d, 0xab, 0x4b, 0xbe, 0x08, 0xa5, 0x6f, 0x3e,
  0x37, 0x12, 0x13, 0x3f, 0xf1, 0x66, 0x92, 0xbd, 0xd5, 0x33, 0xed, 0xbd,
  0x96, 0x3e, 0x6e, 0x3e, 0x60, 0xaa, 0x80, 0xbe, 0xd5, 0x6b, 0x9d, 0xbc,
  0x0f, 0x22, 0x92, 0xbe, 0x76, 0xaa, 0x3b, 0x3c, 0x36, 0x27, 0x6d, 0xbd,
  0x75, 0x15, 0xd8, 0xbd, 0x7b, 0x2c, 0x08, 0x3e, 0x09, 0x33, 0x71, 0x3d,
  0x16, 0xe0, 0x28, 0xbe, 0x15, 0xb7, 0x89, 0x3d, 0xf5, 0xd5, 0x53, 0xbe,
  0xa8, 0x26, 0x7e, 0x3d, 0x5d, 0x99, 0x62, 0x3e, 0x18, 0x29, 0xb0, 0x3d,
  0x7c, 0x8b, 0x80, 0xbe, 0xef, 0xf7, 0x2c, 0x3e, 0xd2, 0xcb, 0x04, 0xbe,
  0x33, 0xcb, 0xd0, 0x3c, 0x8f, 0x74, 0x28, 0xbe, 0xfe, 0x4a, 0xcc, 0xbd,
  0xaf, 0x5b, 0xbd, 0x3e, 0x9f, 0x9b, 0x09, 0xbe, 0xe7, 0x49, 0x31, 0xbe,
  0x12, 0xe3, 0x2d, 0x3e, 0x92, 0xa1, 0x29, 0xbe, 0x5b, 0xec, 0x11, 0x3d,
  0x2d, 0x1b, 0x51, 0xbe, 0xe7, 0x3f, 0xfc, 0x3d, 0xca, 0x6b, 0xb4, 0xbc,
  0xb2, 0x0b, 0x24, 0xbe, 0xa1, 0x86, 0xaa, 0xbe, 0x56, 0xa9, 0xc0, 0xbd,
  0x27, 0x26, 0x50, 0xbe, 0xe0, 0x89, 0xc4, 0xbc, 0x2a, 0x77, 0x53, 0xbe,
  0x7a, 0x63, 0x19, 0xbc, 0x25, 0xcd, 0x84, 0xbe, 0x14, 0x96, 0x17, 0xbd,
  0x62, 0x9d, 0x2e, 0xbe, 0xc5, 0x7d, 0x1d, 0x3d, 0xac, 0x1c, 0x04, 0xbe,
  0x15, 0xd5, 0x48, 0xbd, 0xda, 0x0d, 0x60, 0xbd, 0xeb, 0x22, 0x9c, 0xbd,
  0xaf, 0x1b, 0xdb, 0xbd, 0xb6, 0xf0, 0x96, 0x3d, 0x3f, 0x2c, 0x07, 0xbd,
  0xcf, 0x3d, 0x88, 0xbd, 0x74, 0x79, 0x18, 0x3f, 0x7a, 0xb4, 0x51, 0xbc,
  0x32, 0xf4, 0x22, 0x3f, 0x09, 0xa1, 0xee, 0xbc, 0xa0, 0xdd, 0x3c, 0x3d,
  0x7b, 0xf4, 0xac, 0xbe, 0x53, 0xaa, 0x19, 0xbd, 0xf8, 0x97, 0xe5, 0xbe,
  0x15, 0xd8, 0x8d, 0x3d, 0xe2, 0x0e, 0x0f, 0xbe, 0xe4, 0x5c, 0x9e, 0xbe,
  0xf7, 0x49, 0x8a, 0x3e, 0xf8, 0x8e, 0x65, 0x3e, 0xa3, 0xff, 0xae, 0xbe,
  0xaf, 0xb9, 0x02, 0xbe, 0xbc, 0xa6, 0x2c, 0xbe, 0xd9, 0x76, 0x19, 0xbd,
  0x51, 0xfa, 0x34, 0xbe, 0x7d, 0x33, 0x4b, 0xbe, 0x53, 0xb6, 0x9b, 0x3c,
  0xba, 0x25, 0xd4, 0x3d, 0x6f, 0xda, 0x14, 0xbe, 0xf6, 0x93, 0x04, 0xbe,
  0x1f, 0x4d, 0x50, 0x3e, 0xff, 0xa2, 0x34, 0x3d, 0x50, 0x45, 0xc4, 0xbd,
  0xd6, 0xb6, 0x82, 0x3e, 0x56, 0xd4, 0x13, 0xbe, 0x2b, 0x4f, 0x9d, 0xbd,
  0x70, 0x82, 0xc5, 0x3e, 0x35, 0x8a, 0x19, 0xbe, 0x73, 0xcf, 0xa3, 0x3e,
  0x65, 0xf3, 0x05, 0xbe, 0x1b, 0x33, 0xb3, 0xbe, 0x32, 0x27, 0x1d, 0x3f,
  0xa4, 0x86, 0xd8, 0xbe, 0x57, 0x49, 0xa2, 0xbe, 0xc4, 0xe9, 0x17, 0xbe,
  0xdc, 0x1e, 0x36, 0xbe, 0x84, 0x66, 0xaf, 0xbd, 0x24, 0x24, 0x3e, 0xbe,
  0xce, 0xc8, 0x20, 0xbe, 0x49, 0x4b, 0x20, 0xbe, 0x71, 0x4f, 0x5a, 0x3d,
  0xeb, 0xda, 0x30, 0xbe, 0x38, 0x15, 0xc7, 0x3d, 0xd8, 0x5e, 0x18, 0x3f,
  0x8a, 0xcf, 0x16, 0x3e, 0xe0, 0x50, 0x43, 0xbe, 0xd4, 0x8f, 0x58, 0xbd,
  0xf6, 0x29, 0xd5, 0xbd, 0xae, 0xfb, 0xd4, 0x3e, 0xe6, 0xa5, 0x07, 0xbe,
  0xf9, 0x3a, 0x9a, 0xbd, 0xb5, 0x6b, 0x34, 0x3d, 0xef, 0x8e, 0x71, 0x3d,
  0x68, 0x37, 0x0c, 0xbe, 0x80, 0x28, 0xf3, 0x3d, 0x84, 0xa8, 0x21, 0xbe,
  0x99, 0xfe, 0x86, 0xbd, 0x4f, 0x51, 0xe0, 0x3b, 0x4d, 0xbf, 0xcd, 0xbd,
  0x82, 0xa5, 0xd0, 0xbc, 0x5a, 0x7c, 0x90, 0x3c, 0xe9, 0xf0, 0x04, 0xbd,
  0x3d, 0x3a, 0xa8, 0xbc, 0xff, 0xbd, 0x14, 0xbe, 0x75, 0x2a, 0x6b, 0x3d,
  0x5f, 0xca, 0x13, 0xbc, 0x25, 0xca, 0xbb, 0xbd, 0xbf, 0x4b, 0x36, 0xbc,
  0x5e, 0x59, 0x28, 0xbe, 0x63, 0x4a, 0xc5, 0x3d, 0x74, 0x92, 0xa3, 0xbd,
  0x61, 0x8a, 0xd3, 0xbd, 0x3d, 0x13, 0x09, 0xbd, 0x8d, 0xdd, 0x37, 0xbe,
  0xd0, 0x5e, 0x54, 0xbe, 0x1b, 0xa0, 0xb7, 0xbd, 0x71, 0xb4, 0x1e, 0xbc,
  0x89, 0x61, 0x7e, 0xbe, 0xe2, 0x81, 0x3d, 0xbe, 0x1d, 0x22, 0xdb, 0xbd,
  0x36, 0x92, 0x13, 0xbe, 0xe4, 0x09, 0x7a, 0xbe, 0x8c, 0x7d, 0xb7, 0x3c,
  0x09, 0x50, 0x20, 0xbd, 0x31, 0x0f, 0x67, 0xbe, 0xc9, 0xe3, 0x31, 0x3d,
  0xed, 0x15, 0x81, 0x3c, 0x48, 0xf4, 0x1b, 0x3e, 0xbe, 0x89, 0xe6, 0xbd,
  0xda, 0x13, 0x99, 0x3d, 0xf3, 0xb1, 0x04, 0xbd, 0x07, 0x74, 0x62, 0x3d,
  0x35, 0xfb, 0x10, 0xbe, 0x4c, 0xf8, 0xcc, 0x3e, 0xdb, 0x9f, 0xf0, 0x3c,
  0x0a, 0xda, 0xa2, 0x3e, 0x59, 0x30, 0x70, 0xbc, 0xb1, 0x74, 0x10, 0x3e,
  0xc6, 0xde, 0xff, 0xff, 0x10, 0x00, 0x00, 0x00, 0x08, 0x00, 0x00, 0x00,
  0x1c, 0x00, 0x00, 0x00, 0x38, 0x00, 0x00, 0x00, 0x04, 0x00, 0x00, 0x00,
  0x10, 0x00, 0x00, 0x00, 0x04, 0x00, 0x00, 0x00, 0x01, 0x00, 0x00, 0x00,
  0x08, 0x00, 0x00, 0x00, 0x1a, 0x00, 0x00, 0x00, 0x73, 0x65, 0x71, 0x75,
  0x65, 0x6e, 0x74, 0x69, 0x61, 0x6c, 0x2f, 0x63, 0x6f, 0x6e, 0x76, 0x32,
  0x64, 0x5f, 0x31, 0x2f, 0x43, 0x6f, 0x6e, 0x76, 0x32, 0x44, 0x00, 0x00,
  0xc0, 0xde, 0xff, 0xff, 0xb6, 0xdf, 0xff, 0xff, 0x04, 0x00, 0x00, 0x00,
  0x80, 0x01, 0x00, 0x00, 0x74, 0x1c, 0x0b, 0xbd, 0x83, 0xef, 0x55, 0xbc,
  0xea, 0x4b, 0x9f, 0xbc, 0xf0, 0x63, 0xe1, 0x3b, 0x87, 0xfe, 0x10, 0xbe,
  0x03, 0xed, 0x6a, 0xbe, 0xe4, 0xbf, 0x17, 0x3e, 0xcb, 0x49, 0x89, 0x3d,
  0x91, 0xe1, 0x89, 0xbd, 0xd7, 0x42, 0x98, 0x3a, 0xe2, 0x19, 0x22, 0x3e,
  0x88, 0xd7, 0x33, 0x3e, 0xff, 0x57, 0x8f, 0xbd, 0xc1, 0x19, 0xbd, 0xbd,
  0x1c, 0x65, 0x12, 0x3f, 0x60, 0xf3, 0x12, 0xbd, 0x67, 0xc7, 0x0f, 0xbd,
  0x85, 0xe3, 0x5f, 0x3e, 0x19, 0x13, 0xae, 0x3c, 0x49, 0x62, 0x9b, 0x3d,
  0xdc, 0xf3, 0x05, 0xbf, 0x5f, 0xaa, 0x26, 0x3b, 0xaf, 0xf6, 0x85, 0xbd,
  0xb6, 0x56, 0x8f, 0x3e, 0x16, 0xf5, 0x07, 0x3e, 0xb3, 0x4a, 0x86, 0x3e,
  0x53, 0x7a, 0x17, 0x3f, 0xb3, 0xb7, 0x04, 0xbe, 0xf4, 0xee, 0xb4, 0x3c,
  0x53, 0xf3, 0x95, 0xbe, 0x26, 0xf5, 0xe6, 0xbd, 0x24, 0x46, 0x67, 0xbe,
  0x57, 0x23, 0x80, 0xbe, 0x45, 0xcb, 0x44, 0xbd, 0xb0, 0xd2, 0x47, 0xbe,
  0x3d, 0x22, 0x3b, 0xbe, 0x92, 0xe7, 0x26, 0xbd, 0x1b, 0xb7, 0xa5, 0xbc,
  0xa6, 0xf6, 0xd1, 0x3e, 0x05, 0x3f, 0xff, 0x3d, 0x47, 0xe6, 0x61, 0xbd,
  0xd1, 0x8f, 0x21, 0x3c, 0x0b, 0x5e, 0x59, 0x3d, 0x15, 0x0e, 0x07, 0xbc,
  0x0d, 0x8d, 0x54, 0x3e, 0x44, 0xec, 0x37, 0x3d, 0x4c, 0x7b, 0xfe, 0x3c,
  0x44, 0x5c, 0x80, 0x3d, 0x45, 0x93, 0x30, 0x3e, 0xfa, 0xad, 0xdb, 0xbc,
  0x61, 0x40, 0x12, 0x3d, 0x31, 0xa8, 0x05, 0x3e, 0x71, 0xff, 0x6a, 0x3e,
  0xe1, 0xd7, 0xf9, 0xbd, 0x0b, 0x5e, 0xc5, 0x3e, 0x74, 0x9f, 0x1c, 0x3e,
  0x5d, 0xde, 0x5c, 0x3e, 0x41, 0x57, 0x9b, 0xbe, 0x5c, 0x68, 0x2e, 0xbd,
  0xae, 0x55, 0xe8, 0xbc, 0x11, 0x34, 0x8f, 0x3e, 0xdc, 0xe2, 0x2c, 0xbc,
  0xc2, 0x86, 0xbd, 0x3d, 0x1b, 0x64, 0x1f, 0xbe, 0xbc, 0xe4, 0x98, 0x3c,
  0xb3, 0x38, 0x15, 0x3d, 0x1f, 0x61, 0xad, 0xbd, 0xac, 0x71, 0x99, 0xbc,
  0xad, 0xe1, 0xab, 0x3b, 0x6c, 0xf4, 0x80, 0xbe, 0x14, 0xbb, 0xe6, 0x3d,
  0x1b, 0x1b, 0x01, 0xbd, 0xa7, 0xbd, 0x7e, 0x3d, 0xb1, 0x49, 0x93, 0x3e,
  0x73, 0xe4, 0x04, 0xbe, 0xd1, 0xff, 0xe2, 0xbd, 0xe7, 0xcc, 0xb5, 0x3e,
  0xd4, 0xd0, 0xc4, 0x3e, 0x82, 0x81, 0xb5, 0x3d, 0xb4, 0xad, 0x79, 0xbd,
  0x20, 0x94, 0xba, 0xbd, 0xe8, 0x94, 0xec, 0x3d, 0x2f, 0xb6, 0x68, 0xbe,
  0x6d, 0x5e, 0x22, 0x3d, 0xa6, 0xef, 0x6d, 0xbe, 0xc5, 0x6d, 0x14, 0x3e,
  0xe9, 0x51, 0x38, 0x3f, 0x39, 0x78, 0xa3, 0x3e, 0x2b, 0x63, 0x7f, 0x3d,
  0x4f, 0xc2, 0x22, 0x3c, 0x1e, 0x08, 0xf6, 0xbd, 0x6c, 0x69, 0x31, 0x3e,
  0x84, 0xb8, 0x2a, 0x3e, 0xc2, 0x83, 0x87, 0x3d, 0x90, 0x89, 0x0e, 0xbe,
  0x40, 0xfd, 0xcf, 0xbd, 0x9e, 0xe0, 0xff, 0xff, 0x10, 0x00, 0x00, 0x00,
  0x07, 0x00, 0x00, 0x00, 0x1c, 0x00, 0x00, 0x00, 0x38, 0x00, 0x00, 0x00,
  0x04, 0x00, 0x00, 0x00, 0x08, 0x00, 0x00, 0x00, 0x04, 0x00, 0x00, 0x00,
  0x03, 0x00, 0x00, 0x00, 0x01, 0x00, 0x00, 0x00, 0x18, 0x00, 0x00, 0x00,
  0x73, 0x65, 0x71, 0x75, 0x65, 0x6e, 0x74, 0x69, 0x61, 0x6c, 0x2f, 0x63,
  0x6f, 0x6e, 0x76, 0x32, 0x64, 0x2f, 0x43, 0x6f, 0x6e, 0x76, 0x32, 0x44,
  0x00, 0x00, 0x00, 0x00, 0x98, 0xe0, 0xff, 0xff, 0x8e, 0xe1, 0xff, 0xff,
  0x04, 0x00, 0x00, 0x00, 0x00, 0x01, 0x00, 0x00, 0xf5, 0x4b, 0x97, 0x3e,
  0x7b, 0xdf, 0xcf, 0xbd, 0x08, 0x13, 0xac, 0x3e, 0x6e, 0x65, 0x9e, 0x3d,
  0xa7, 0x86, 0xb7, 0xbd, 0x87, 0x5e, 0x76, 0x3e, 0x78, 0x9e, 0x30, 0x3e,
  0x44, 0xf8, 0xdd, 0xbd, 0x62, 0xe1, 0x72, 0x3e, 0x48, 0xf0, 0x5f, 0xbd,
  0x15, 0xfd, 0x2a, 0xbe, 0x59, 0xad, 0x84, 0xbe, 0xcf, 0x94, 0x6a, 0x3d,
  0x9d, 0xbc, 0x47, 0xbc, 0x95, 0xa3, 0x99, 0xba, 0xda, 0x02, 0x7b, 0xbe,
  0x36, 0xb7, 0x7f, 0x3e, 0x85, 0xef, 0x07, 0xbe, 0x06, 0xf1, 0x83, 0x3e,
  0xb8, 0x0c, 0xa6, 0x3d, 0x09, 0x95, 0x55, 0xbe, 0x6b, 0xb7, 0x52, 0x3e,
  0xd8, 0x59, 0xff, 0x3d, 0x79, 0x7e, 0xc8, 0xbc, 0x1f, 0x04, 0x35, 0x3e,
  0x26, 0x6a, 0xae, 0xbd, 0x09, 0x7f, 0x45, 0xbe, 0x2a, 0x4c, 0x8d, 0xbe,
  0xc3, 0x6e, 0x69, 0xbd, 0x7f, 0x34, 0xdf, 0x3c, 0x4e, 0x04, 0x10, 0xbd,
  0xb9, 0x5f, 0xd5, 0xbe, 0xd8, 0xd9, 0x7f, 0x3e, 0xe0, 0x31, 0x15, 0xbe,
  0x17, 0x7b, 0xbc, 0x3e, 0xbc, 0xb6, 0xcf, 0x3d, 0x7b, 0x41, 0xdd, 0xbd,
  0xc5, 0xe9, 0x92, 0x3e, 0x29, 0x20, 0x4d, 0x3e, 0x4b, 0xd5, 0xbd, 0x3c,
  0x28, 0x48, 0x41, 0x3e, 0x44, 0x1c, 0xc5, 0xbc, 0x55, 0xeb, 0xee, 0xbd,
  0x4f, 0x3a, 0x87, 0xbe, 0x4f, 0xde, 0x63, 0x3c, 0x1b, 0x85, 0xc8, 0x3c,
  0x25, 0x14, 0x9d, 0xbc, 0xe8, 0x85, 0x84, 0xbe, 0xaf, 0x19, 0x39, 0x3e,
  0x32, 0x6d, 0x29, 0xbe, 0x78, 0x05, 0xb0, 0x3e, 0x4d, 0x66, 0x28, 0x3e,
  0x14, 0x7e, 0x23, 0xbe, 0xe4, 0xe8, 0x60, 0x3e, 0xf3, 0xa7, 0x14, 0x3e,
  0xf8, 0x2d, 0x5c, 0x3d, 0x34, 0x01, 0x20, 0x3e, 0xcd, 0x6d, 0x6e, 0x3a,
  0x11, 0x69, 0x1b, 0xbe, 0x6e, 0xbe, 0x64, 0xbe, 0x0d, 0x2e, 0x11, 0x3d,
  0x2e, 0xf2, 0xaf, 0x3d, 0x6a, 0xcf, 0x28, 0x3c, 0xc5, 0x40, 0x83, 0xbe,
  0xf6, 0xe1, 0xff, 0xff, 0x10, 0x00, 0x00, 0x00, 0x06, 0x00, 0x00, 0x00,
  0x14, 0x00, 0x00, 0x00, 0x30, 0x00, 0x00, 0x00, 0x02, 0x00, 0x00, 0x00,
  0x04, 0x00, 0x00, 0x00, 0x10, 0x00, 0x00, 0x00, 0x19, 0x00, 0x00, 0x00,
  0x73, 0x65, 0x71, 0x75, 0x65, 0x6e, 0x74, 0x69, 0x61, 0x6c, 0x2f, 0x64,
  0x65, 0x6e, 0x73, 0x65, 0x5f, 0x31, 0x2f, 0x4d, 0x61, 0x74, 0x4d, 0x75,
  0x6c, 0x00, 0x00, 0x00, 0xe8, 0xe1, 0xff, 0xff, 0xde, 0xe2, 0xff, 0xff,
  0x04, 0x00, 0x00, 0x00, 0x00, 0x1c, 0x00, 0x00, 0x9e, 0xb3, 0x17, 0x3f,
  0x4c, 0x49, 0x76, 0xbe, 0xb5, 0x92, 0xf4, 0x3d, 0x9c, 0x94, 0x4f, 0xbe,
  0x19, 0x00, 0x11, 0x3f, 0x99, 0xe9, 0x9f, 0xbe, 0x8b, 0x47, 0xa3, 0xbe,
  0xba, 0x92, 0x41, 0xbe, 0x2c, 0x48, 0xcd, 0xb9, 0x83, 0x9e, 0xbc, 0x3c,
  0x91, 0x90, 0xcf, 0x3d, 0xfc, 0x50, 0x57, 0xbe, 0x08, 0xf6, 0x8e, 0xbe,
  0x6c, 0x36, 0x02, 0xbe, 0x6d, 0x0b, 0xc8, 0xbd, 0x97, 0x07, 0x24, 0xbe,
  0xaf, 0x48, 0x44, 0x40, 0xd3, 0x85, 0x82, 0x3e, 0xdc, 0xe8, 0xbb, 0x3d,
  0xbf, 0xc6, 0x01, 0x3e, 0x8c, 0x9f, 0x59, 0x3e, 0x1b, 0xb5, 0x2d, 0xbe,
  0x31, 0x5a, 0xfe, 0xbe, 0xba, 0x1d, 0x42, 0xbf, 0xb1, 0x64, 0x21, 0xbe,
  0x96, 0xf9, 0x02, 0x3e, 0x09, 0x8d, 0xa3, 0x3e, 0xdc, 0x46, 0xb5, 0xbd,
  0xf7, 0x9d, 0x60, 0x3e, 0x2e, 0xd5, 0xed, 0x3d, 0x0a, 0x1d, 0x21, 0xbd,
  0x51, 0x92, 0x64, 0xbd, 0x2b, 0x2e, 0x4a, 0x40, 0x91, 0x4f, 0x9a, 0xbb,
  0xde, 0x18, 0x2f, 0x3e, 0xde, 0xea, 0x3f, 0x3e, 0xcb, 0xd9, 0xef, 0x3e,
  0x7a, 0x4b, 0x8a, 0x3e, 0x4d, 0x81, 0x0a, 0x3e, 0xfe, 0xcf, 0xee, 0xbe,
  0xbd, 0x46, 0xc5, 0x3c, 0x79, 0x78, 0x31, 0x3e, 0x30, 0xcd, 0x9c, 0x3e,
  0xd0, 0x01, 0x3c, 0xbd, 0xab, 0x66, 0x60, 0x3d, 0xb7, 0x07, 0x38, 0x3e,
  0xce, 0x7e, 0x11, 0xbe, 0x17, 0x76, 0xa3, 0x3c, 0x2d, 0x36, 0x60, 0x40,
  0x0a, 0x92, 0xb1, 0xbd, 0x8e, 0x96, 0x31, 0x3e, 0x33, 0xa5, 0x7c, 0xbe,
  0xf6, 0xb0, 0x86, 0x3e, 0x9e, 0x74, 0xe1, 0xbb, 0xf8, 0xf7, 0x10, 0xbe,
  0x4c, 0x7d, 0x63, 0xbe, 0x52, 0x17, 0xeb, 0xbd, 0x2c, 0x6c, 0xf2, 0xbd,
  0xd3, 0x45, 0x37, 0x3e, 0x5c, 0xe9, 0x3e, 0xbe, 0x03, 0xfb, 0xa8, 0xbd,
  0x0d, 0xb3, 0x79, 0xbd, 0xe4, 0x10, 0xb4, 0xbe, 0xcc, 0x84, 0x91, 0xbd,
  0x29, 0x11, 0x4a, 0x40, 0x41, 0xbe, 0xa7, 0x3e, 0x5c, 0xd1, 0x68, 0x3e,
  0x6d, 0x49, 0xb5, 0xbe, 0x3e, 0x27, 0x16, 0x3d, 0x08, 0xa1, 0x2b, 0x3e,
  0xff, 0x58, 0x48, 0xbe, 0xff, 0xd1, 0xb9, 0xbe, 0x67, 0x71, 0x4a, 0x3e,
  0x8c, 0xf0, 0x95, 0xbd, 0xda, 0x69, 0x8e, 0x3e, 0xfe, 0xa3, 0xa4, 0xbd,
  0xf3, 0x66, 0xa1, 0xbd, 0xca, 0x3e, 0xfd, 0x3d, 0xb0, 0x8f, 0x55, 0xbc,
  0xb6, 0xf6, 0x30, 0xbe, 0xc3, 0x34, 0x17, 0x40, 0x28, 0x7b, 0x47, 0xbd,
  0x3a, 0x72, 0xdb, 0x3d, 0x90, 0xee, 0x27, 0xbe, 0x72, 0x2b, 0x08, 0x3f,
  0xc6, 0x8a, 0xa2, 0xbd, 0x6f, 0xaa, 0x44, 0xbd, 0xae, 0xfa, 0xa1, 0xbe,
  0xaa, 0x45, 0xc2, 0x3d, 0x06, 0xa5, 0x98, 0x3e, 0x59, 0x49, 0x3d, 0xbd,
  0x73, 0x16, 0x95, 0x3d, 0x02, 0xee, 0x16, 0xbc, 0x38, 0x3d, 0x0b, 0x3e,
  0x14, 0x3a, 0x83, 0x3e, 0xe0, 0x91, 0x93, 0xbe, 0xc8, 0xa5, 0x2c, 0x3e,
  0xc3, 0x48, 0x8f, 0x3d, 0x98, 0x5c, 0xa7, 0xbd, 0xaf, 0xbf, 0x95, 0xbd,
  0xfa, 0x36, 0x14, 0x3d, 0x1e, 0xbe, 0x14, 0x3b, 0x64, 0x70, 0x79, 0x3e,
  0x7e, 0x38, 0x81, 0xbe, 0x19, 0x07, 0xdd, 0xbc, 0x7c, 0x14, 0xb7, 0xbb,
  0x3c, 0x5a, 0x06, 0xbe, 0x3c, 0x7b, 0xec, 0xbd, 0xea, 0xed, 0x2e, 0x3d,
  0x55, 0x37, 0xd1, 0x3d, 0x46, 0x00, 0x04, 0xbd, 0xa0, 0x0d, 0x08, 0xbe,
  0xdf, 0xec, 0x39, 0x3f, 0x30, 0x29, 0x2c, 0xbe, 0xf1, 0x02, 0xb7, 0x3e,
  0x67, 0x1d, 0x7d, 0xbe, 0x5b, 0xa1, 0x46, 0x3f, 0x44, 0x29, 0x86, 0xbd,
  0x47, 0xd5, 0x87, 0xbe, 0x58, 0xa7, 0xab, 0xbe, 0xe1, 0xe6, 0x8b, 0xbe,
  0x4d, 0x0f, 0x7b, 0x3e, 0x3c, 0xac, 0x70, 0xbd, 0x6c, 0x18, 0xa1, 0xbd,
  0xb0, 0x9b, 0x1c, 0xbf, 0xc8, 0x28, 0x40, 0x3d, 0x15, 0xba, 0x77, 0xbc,
  0x5b, 0x65, 0xe4, 0xbe, 0xb3, 0xf5, 0xbe, 0x40, 0xa5, 0xb8, 0x65, 0x3e,
  0x12, 0xf1, 0x67, 0x3e, 0xa3, 0x3f, 0xa9, 0x3d, 0xad, 0x04, 0x22, 0x3f,
  0x01, 0xa1, 0x5d, 0xbe, 0xb3, 0x07, 0x9f, 0x3e, 0x79, 0x80, 0xb0, 0xbe,
  0x83, 0x37, 0x66, 0x3d, 0x59, 0x34, 0xd0, 0x3d, 0x70, 0xa5, 0x4a, 0x3e,
  0x00, 0x4e, 0xa0, 0x3a, 0x22, 0xd3, 0x59, 0x3e, 0x08, 0x0a, 0xc7, 0x3d,
  0x66, 0xf5, 0xfe, 0xbd, 0xa4, 0x5e, 0x89, 0xbe, 0x58, 0xf4, 0x94, 0x40,
  0x20, 0x00, 0xc8, 0xbd, 0x37, 0xcb, 0xbc, 0x3e, 0x2c, 0xfe, 0x86, 0x3d,
  0x3c, 0x4a, 0x5d, 0x3f, 0x72, 0x53, 0x70, 0x3e, 0x97, 0x7e, 0x25, 0x3e,
  0x2b, 0x4e, 0x36, 0xbe, 0xfb, 0x20, 0xa0, 0x3d, 0x4c, 0x30, 0x15, 0xbe,
  0x40, 0x48, 0x0f, 0x3f, 0xeb, 0x63, 0x22, 0x3d, 0xae, 0x53, 0x14, 0x3c,
  0x7e, 0x79, 0x21, 0x3e, 0xf0, 0x36, 0x4f, 0xbd, 0x66, 0x29, 0x30, 0xbe,
  0x5f, 0x09, 0x82, 0x40, 0x7c, 0x86, 0x06, 0x3d, 0x4a, 0xbe, 0xb9, 0x3d,
  0x74, 0x20, 0x49, 0xbe, 0xe5, 0x7c, 0xac, 0x3e, 0x3c, 0x87, 0xfd, 0x3e,
  0xe1, 0x97, 0x02, 0x3b, 0xf9, 0xf0, 0x55, 0xbe, 0x41, 0x2a, 0xe6, 0x3c,
  0x85, 0x6a, 0x51, 0x3d, 0xc0, 0x39, 0x83, 0xbe, 0x60, 0xb7, 0x7c, 0xbd,
  0x95, 0xa6, 0xe6, 0x3d, 0x1b, 0x9b, 0xb2, 0x3a, 0xa2, 0xd8, 0x2c, 0xbe,
  0xc0, 0xe4, 0x3a, 0xbe, 0x05, 0xfa, 0x8a, 0x40, 0x73, 0xca, 0xad, 0xbd,
  0x07, 0x43, 0x1f, 0x3c, 0x07, 0x7a, 0xb4, 0xbe, 0xac, 0x9d, 0x57, 0x3f,
  0x1b, 0x09, 0xf5, 0x3e, 0x28, 0xee, 0xb5, 0x3d, 0xb7, 0xdd, 0x7c, 0xbc,
  0x0f, 0x0b, 0x40, 0x3c, 0xd3, 0x6d, 0x12, 0x3e, 0xe8, 0xfe, 0x3d, 0x3a,
  0x6d, 0xe2, 0x47, 0x3d, 0xc3, 0xa3, 0xfd, 0x3d, 0x1d, 0xce, 0xe6, 0xbd,
  0xfe, 0x6c, 0x90, 0xbe, 0x40, 0x7d, 0xae, 0xbe, 0x7d, 0xaf, 0x70, 0x40,
  0x75, 0xd1, 0x31, 0xbe, 0x37, 0xb1, 0x5c, 0xbe, 0x09, 0x0a, 0x86, 0xbe,
  0x82, 0xd0, 0x03, 0x3f, 0x88, 0x8d, 0x17, 0x3e, 0x8f, 0x3d, 0x27, 0xbd,
  0xed, 0x93, 0x84, 0xbe, 0x6d, 0x10, 0x23, 0x3e, 0x9e, 0xf9, 0x08, 0x3c,
  0x8d, 0xca, 0xa0, 0xbe, 0x39, 0x2e, 0x30, 0xbe, 0xb5, 0xcb, 0x4f, 0x3d,
  0x95, 0xf7, 0x1d, 0xbe, 0x5d, 0xe9, 0x02, 0x3c, 0xf5, 0x3d, 0x57, 0xbe,
  0x6e, 0x9d, 0xaa, 0xbe, 0x37, 0xdb, 0xee, 0x3b, 0xfc, 0x21, 0x6f, 0xbd,
  0xa3, 0x8e, 0x03, 0xbe, 0xc3, 0xe2, 0x51, 0x3d, 0x68, 0xdc, 0xde, 0x3c,
  0x19, 0xd1, 0x69, 0x3c, 0xc0, 0xc4, 0xb6, 0x3c, 0x9a, 0x2e, 0x17, 0x3e,
  0xba, 0x12, 0x9a, 0xbd, 0x89, 0xcf, 0xdd, 0xbd, 0xa3, 0x3b, 0xc5, 0xbd,
  0x89, 0xc3, 0xf7, 0xbc, 0x23, 0x12, 0xb8, 0xbd, 0xda, 0xaa, 0x94, 0x3b,
  0x05, 0x05, 0x1f, 0xbe, 0xa1, 0xe8, 0x6b, 0xbe, 0x11, 0x77, 0x3b, 0x3e,
  0xf1, 0x3c, 0x3a, 0xbc, 0x0c, 0x27, 0x08, 0xbe, 0x7b, 0x96, 0x35, 0xbf,
  0x5d, 0x8e, 0xe4, 0xbe, 0x6d, 0xef, 0x15, 0xbe, 0xc5, 0x58, 0xa6, 0xbd,
  0x3e, 0xb0, 0xbf, 0xbd, 0x8d, 0x8f, 0xc4, 0xbc, 0x39, 0x73, 0xa6, 0xba,
  0x66, 0xd3, 0xf8, 0xbd, 0x9b, 0x03, 0x67, 0x3c, 0xca, 0x25, 0x66, 0x3d,
  0xe6, 0x15, 0x0d, 0xbc, 0x83, 0x2e, 0xb6, 0x3b, 0x0c, 0x11, 0x1e, 0xbf,
  0x85, 0x76, 0x89, 0x3d, 0xbd, 0xea, 0x53, 0x3e, 0x6f, 0xb4, 0x47, 0xbe,
  0x28, 0x57, 0x7b, 0xbd, 0x72, 0xaa, 0x4f, 0xbb, 0x8c, 0x3e, 0xe6, 0xbe,
  0xeb, 0xf7, 0x19, 0x3c, 0x9c, 0x65, 0xec, 0xbd, 0x19, 0x69, 0x7b, 0x3e,
  0xdc, 0x95, 0x50, 0xbd, 0x30, 0xd3, 0x04, 0xbd, 0xce, 0xab, 0xf2, 0x3d,
  0xb4, 0x74, 0x00, 0xbe, 0x7c, 0x4f, 0xd1, 0x3d, 0x22, 0x47, 0x2a, 0xbd,
  0x22, 0xf6, 0x07, 0xbf, 0x41, 0x09, 0xa2, 0xbd, 0xcb, 0xff, 0x75, 0xbd,
  0xf0, 0x24, 0x70, 0x3e, 0xd5, 0x83, 0xc0, 0xba, 0x9a, 0x41, 0x14, 0x3e,
  0x1f, 0x22, 0x44, 0xbe, 0xf3, 0x0f, 0xdd, 0x3b, 0x5a, 0x18, 0x0c, 0x3d,
  0xa0, 0x2a, 0x30, 0x3e, 0x8c, 0x67, 0x81, 0xbe, 0x8b, 0x5a, 0x34, 0xbc,
  0x7b, 0xd2, 0x8e, 0x3c, 0xf4, 0xc4, 0x3b, 0xbe, 0x52, 0x6f, 0x1e, 0x3e,
  0xb7, 0xe6, 0x4b, 0xbd, 0xc2, 0x7c, 0x0a, 0xbf, 0xe4, 0x06, 0xce, 0x3d,
  0x73, 0x12, 0x68, 0xbe, 0xaf, 0xc3, 0xd6, 0x3d, 0x64, 0xb3, 0xb4, 0x3e,
  0xca, 0x61, 0x90, 0x37, 0x11, 0xfd, 0x4c, 0xbd, 0xbd, 0x07, 0x15, 0xbd,
  0x04, 0x01, 0xd3, 0x3d, 0xcd, 0xd3, 0x63, 0xbd, 0xd3, 0xcd, 0xc6, 0xbd,
  0x6f, 0xd9, 0x0a, 0x3d, 0x7f, 0xf3, 0x9d, 0x3c, 0x8e, 0x20, 0xe4, 0x3c,
  0x7b, 0x4b, 0xbd, 0x3d, 0x33, 0x6c, 0x8a, 0xbd, 0xc7, 0xba, 0xe8, 0xbe,
  0x7a, 0x8e, 0x66, 0x3e, 0xd9, 0xd0, 0x87, 0xbe, 0x4f, 0xe3, 0xd2, 0xbe,
  0xa3, 0x21, 0x07, 0x3f, 0xe4, 0xb1, 0xeb, 0xbd, 0x42, 0x19, 0x7d, 0xbe,
  0x36, 0xe8, 0xa8, 0xbd, 0xb4, 0xc5, 0xaf, 0xbc, 0xfb, 0x78, 0xb9, 0x3b,
  0x74, 0x95, 0x4e, 0xbe, 0xbc, 0x6f, 0xc1, 0xbc, 0xb0, 0x09, 0x83, 0x3d,
  0x58, 0x04, 0x50, 0x3d, 0xf0, 0x64, 0x9f, 0xbd, 0xd5, 0x3e, 0x07, 0xbb,
  0x65, 0x1a, 0x9e, 0x3d, 0x99, 0x61, 0x30, 0x3e, 0x52, 0xc6, 0xdc, 0x3d,
  0xe8, 0xdf, 0xe3, 0xbe, 0x9c, 0xfc, 0x26, 0xbe, 0xdd, 0xf0, 0x28, 0xbe,
  0xdb, 0x4e, 0x3d, 0xbe, 0x00, 0x85, 0x2f, 0x3d, 0x1d, 0x74, 0x1a, 0x3e,
  0x6b, 0x40, 0x1d, 0x3e, 0x2b, 0xd2, 0x4f, 0xbd, 0x64, 0x45, 0x97, 0xbc,
  0x16, 0xda, 0xb3, 0x3d, 0xcd, 0xae, 0x18, 0xbc, 0xf8, 0x14, 0x50, 0xbe,
  0xa4, 0x75, 0xa2, 0x3d, 0x01, 0x24, 0x32, 0xbe, 0x2a, 0x22, 0x2d, 0x3e,
  0xf4, 0xdb, 0xf6, 0xbc, 0xec, 0xd5, 0x1c, 0xbe, 0xb3, 0x21, 0x3a, 0xbe,
  0xff, 0xa9, 0x3b, 0xbe, 0xc4, 0xbb, 0xde, 0xbd, 0xf7, 0xbb, 0xd3, 0x3d,
  0x94, 0xd1, 0x99, 0x3d, 0x19, 0x1f, 0xc5, 0x3d, 0x60, 0x6f, 0x09, 0xbe,
  0x6a, 0x66, 0x42, 0xbd, 0xac, 0x9a, 0x15, 0x3e, 0xb7, 0x3d, 0x54, 0xbb,
  0xc6, 0xd4, 0x46, 0xbe, 0x2c, 0x02, 0x12, 0x3d, 0xbd, 0x2b, 0x99, 0x3d,
  0xcb, 0xd7, 0x58, 0x3e, 0xa6, 0xeb, 0x8a, 0xbe, 0xdd, 0x05, 0x95, 0x3a,
  0x80, 0xf0, 0xa9, 0xbe, 0xc0, 0x1c, 0x75, 0x3e, 0x01, 0x14, 0x67, 0x3d,
  0x24, 0x72, 0x70, 0x3d, 0x65, 0xda, 0x81, 0x3d, 0xf4, 0x0f, 0xb9, 0xbe,
  0xb6, 0x84, 0xdd, 0xbe, 0x07, 0x1f, 0xf0, 0x3d, 0xa5, 0x06, 0x7c, 0xbe,
  0xb9, 0xb1, 0x1a, 0xbe, 0x42, 0x8b, 0xcb, 0x3d, 0xbf, 0x8c, 0x1d, 0xbf,
  0x2c, 0x42, 0xbc, 0xbe, 0xc8, 0x2b, 0xa5, 0x3e, 0x49, 0x8b, 0x46, 0xbc,
  0x51, 0x96, 0x65, 0x3e, 0xf3, 0x92, 0x13, 0x3c, 0x8d, 0xd0, 0x0b, 0x3e,
  0x93, 0x8d, 0x25, 0xbc, 0xc0, 0x85, 0xb2, 0xbd, 0xef, 0xa3, 0x05, 0x3e,
  0x23, 0x91, 0x02, 0xbe, 0x8e, 0x8e, 0xcc, 0x3d, 0xab, 0x35, 0x39, 0xbd,
  0x8c, 0xe5, 0x08, 0xbe, 0x8a, 0x7d, 0x34, 0xbe, 0x23, 0x95, 0xcc, 0xbd,
  0x0e, 0x8c, 0x2d, 0x3c, 0x03, 0x2a, 0xdd, 0xbe, 0x8d, 0xfb, 0x98, 0xbd,
  0x42, 0x32, 0x97, 0x3c, 0x50, 0xe0, 0x4a, 0x3e, 0xad, 0xee, 0xfc, 0xbb,
  0x16, 0xf1, 0x5b, 0x3d, 0x97, 0x22, 0xcf, 0xbd, 0x11, 0x7a, 0xd5, 0xba,
  0xac, 0xc6, 0xec, 0x3e, 0xff, 0xa2, 0x9b, 0xbe, 0x98, 0x70, 0x33, 0x3e,
  0xd8, 0xed, 0xc7, 0x3d, 0xe2, 0x34, 0x1a, 0xbe, 0x1b, 0xc9, 0xd9, 0xbb,
  0xb5, 0xef, 0x73, 0x3d, 0x13, 0xec, 0x08, 0xbe, 0x54, 0xce, 0x93, 0xbe,
  0x26, 0xe6, 0x4e, 0x3e, 0xf3, 0xff, 0xb3, 0xbc, 0x4a, 0xae, 0x8a, 0x3d,
  0x91, 0xde, 0x69, 0x3e, 0x87, 0xf5, 0x31, 0xbd, 0x3c, 0x63, 0xbd, 0xbd,
  0x39, 0x20, 0x85, 0x3d, 0xab, 0x76, 0x84, 0x3e, 0x8f, 0xec, 0x6e, 0x3e,
  0xd1, 0x9b, 0x34, 0xbd, 0x65, 0xd0, 0x59, 0x3d, 0x49, 0x0d, 0xc2, 0xbe,
  0x74, 0x19, 0xd3, 0xbd, 0xa1, 0x05, 0x4b, 0xbc, 0xdd, 0x36, 0xa1, 0xbe,
  0x20, 0x87, 0x89, 0xbe, 0xcb, 0x50, 0xf0, 0x3d, 0x9e, 0xc5, 0x0a, 0xbe,
  0xe1, 0x5c, 0xff, 0xbd, 0xd3, 0x6c, 0x96, 0x3e, 0xb0, 0xb5, 0x61, 0xbc,
  0x19, 0xd2, 0xdd, 0xbd, 0x83, 0xeb, 0x2c, 0x3d, 0x7f, 0x20, 0xd0, 0x3e,
  0x27, 0xa1, 0x31, 0x3d, 0x67, 0x80, 0xab, 0xbe, 0x43, 0x8d, 0x84, 0x3d,
  0xf9, 0xa3, 0x1c, 0xbf, 0x89, 0x0a, 0xa9, 0xbd, 0x11, 0xfc, 0x81, 0xbd,
  0xfc, 0x64, 0xa6, 0xbe, 0x04, 0x2f, 0xd4, 0xbe, 0x9e, 0xf5, 0x82, 0xbe,
  0xd4, 0x09, 0xdb, 0xbe, 0x5a, 0x90, 0x26, 0xbe, 0x50, 0x93, 0x7d, 0xbd,
  0x4c, 0x59, 0xf6, 0x3d, 0x46, 0xd2, 0x98, 0x3d, 0x2d, 0x5d, 0xd7, 0x3d,
  0x13, 0x8b, 0xe0, 0x3e, 0x15, 0xc5, 0x25, 0xbe, 0x5a, 0x5b, 0x0a, 0xbf,
  0x6c, 0xbf, 0x41, 0x3d, 0x66, 0x19, 0xd7, 0xbe, 0xd6, 0xa1, 0x4e, 0xbe,
  0x98, 0xb5, 0x9c, 0x3d, 0xc2, 0x23, 0xc1, 0xbe, 0x0c, 0x13, 0x66, 0xbf,
  0xb8, 0x93, 0xa1, 0xbe, 0x3a, 0x87, 0x33, 0x3d, 0xde, 0xa5, 0x76, 0xbe,
  0x11, 0x49, 0x05, 0x3d, 0x98, 0x99, 0x01, 0xbe, 0x06, 0xfe, 0x05, 0xbd,
  0xf0, 0x37, 0x0c, 0xbd, 0x3a, 0xc2, 0x71, 0xbd, 0x8c, 0x4b, 0x20, 0xbd,
  0xf4, 0x22, 0x14, 0xbf, 0x5c, 0x20, 0xf1, 0xbc, 0x08, 0x97, 0x48, 0xbf,
  0xcb, 0xff, 0x43, 0xbe, 0x4b, 0xb5, 0x8e, 0x3b, 0x1d, 0xde, 0x56, 0xbe,
  0xda, 0x5f, 0x9f, 0x3f, 0x9e, 0x67, 0xf7, 0x3c, 0x2a, 0x13, 0x44, 0x3d,
  0x9d, 0x5c, 0x8c, 0xbe, 0x01, 0xfd, 0x2a, 0x3f, 0xfd, 0x26, 0x2a, 0xbe,
  0xc3, 0xb2, 0x4d, 0xbe, 0x6a, 0xee, 0xf9, 0xbc, 0xa8, 0xfa, 0x1f, 0xbc,
  0x2b, 0x7f, 0x8c, 0x3e, 0x6e, 0x51, 0xe6, 0xbe, 0x20, 0x7c, 0xba, 0xbd,
  0x75, 0xc0, 0xc2, 0xbc, 0x55, 0x8f, 0x83, 0x3d, 0xde, 0xc5, 0x8e, 0xbd,
  0x5e, 0x67, 0x21, 0x3d, 0x38, 0x5c, 0x53, 0x40, 0x5c, 0x54, 0xca, 0xbd,
  0x00, 0xd6, 0x21, 0xbe, 0xfe, 0x24, 0x17, 0x3c, 0x12, 0x3b, 0x3b, 0x3e,
  0x5e, 0xb9, 0x58, 0x3d, 0x40, 0x0e, 0xa5, 0xbd, 0xeb, 0x65, 0x33, 0xbd,
  0x7c, 0x86, 0x62, 0xbe, 0xf5, 0x2b, 0xa8, 0x3d, 0xab, 0x57, 0x40, 0xbd,
  0x1c, 0x9d, 0xf1, 0x3b, 0xa9, 0x7a, 0x21, 0xbe, 0x1c, 0xf9, 0x43, 0xbd,
  0xee, 0x66, 0x3f, 0xbe, 0x97, 0x20, 0xbc, 0x3d, 0x80, 0xda, 0x60, 0x40,
  0x53, 0xc1, 0xd3, 0xbd, 0x6d, 0x4d, 0x69, 0xbe, 0x0c, 0x73, 0x2c, 0x3e,
  0x7c, 0x69, 0x85, 0x3e, 0xf6, 0x10, 0x89, 0x3e, 0xc9, 0xa8, 0x26, 0xbe,
  0x69, 0x0f, 0x30, 0xbe, 0xab, 0x53, 0x19, 0x3e, 0x4a, 0xea, 0xe8, 0xbd,
  0xe9, 0x50, 0xda, 0xbd, 0xb4, 0x6b, 0xe3, 0xbd, 0x38, 0x5d, 0x60, 0xbe,
  0xc5, 0xc0, 0xa4, 0xbd, 0xbe, 0xc2, 0xea, 0xbd, 0xa9, 0x2a, 0x46, 0x3c,
  0x61, 0x01, 0x65, 0x40, 0x26, 0x70, 0xe2, 0xbd, 0xb7, 0x90, 0x2f, 0xbe,
  0xac, 0xb1, 0x34, 0x3d, 0x42, 0xb6, 0x47, 0x3e, 0xe0, 0xb8, 0x0c, 0x3e,
  0xf5, 0xef, 0xce, 0xbe, 0x2f, 0xa5, 0xc1, 0xbe, 0x44, 0x69, 0x87, 0xbb,
  0x09, 0x02, 0x82, 0xbd, 0x24, 0xc0, 0x8e, 0x3c, 0x6a, 0x2b, 0xf9, 0xbd,
  0x57, 0x19, 0x46, 0xbd, 0xa6, 0xbe, 0xcf, 0x3d, 0x03, 0x41, 0xa5, 0xbe,
  0x89, 0xeb, 0x5d, 0x39, 0x9c, 0x8b, 0x64, 0x40, 0x9c, 0x5b, 0xb5, 0xbe,
  0xff, 0x38, 0x8a, 0x3e, 0xfc, 0xa5, 0x29, 0xbe, 0xc1, 0x32, 0x3d, 0x3e,
  0xb9, 0x0c, 0x09, 0xbd, 0x78, 0xc5, 0x49, 0xbe, 0x3c, 0x1f, 0x1f, 0xbe,
  0x46, 0xb0, 0xbe, 0xbb, 0x9b, 0x20, 0xb7, 0xbe, 0x72, 0x3f, 0x90, 0xbd,
  0x81, 0x8c, 0x38, 0xbe, 0x68, 0x08, 0x80, 0xbe, 0x7e, 0x2e, 0x40, 0x3e,
  0x5a, 0x2a, 0x9f, 0xbd, 0xc4, 0x96, 0x0b, 0xbd, 0x4a, 0xbd, 0x2a, 0x40,
  0xbf, 0xc3, 0x85, 0xbe, 0xe0, 0xbe, 0x3c, 0x3e, 0xb9, 0xe1, 0x75, 0xbe,
  0x31, 0x61, 0xa8, 0x3e, 0x66, 0xcc, 0x5c, 0x3d, 0x8b, 0xab, 0xec, 0xbd,
  0x63, 0xac, 0xe0, 0xbd, 0xae, 0xa8, 0x9b, 0x3e, 0x9d, 0xc3, 0x8b, 0xbe,
  0x76, 0x94, 0x64, 0x3e, 0x69, 0xf8, 0x4e, 0xbe, 0x1c, 0xba, 0x06, 0xbe,
  0x60, 0x83, 0xde, 0x3c, 0xa8, 0x74, 0x00, 0xbe, 0x75, 0xec, 0xeb, 0xbd,
  0x14, 0xd4, 0xb1, 0x3d, 0x30, 0xf9, 0x09, 0x3e, 0x33, 0xb2, 0xad, 0x3d,
  0x39, 0x2d, 0xb9, 0xbe, 0xaa, 0xc1, 0xd5, 0x3e, 0x14, 0xe0, 0x06, 0xbe,
  0x9e, 0x2d, 0x80, 0xbe, 0xb9, 0x32, 0x03, 0xbd, 0xa7, 0x31, 0xb2, 0xbd,
  0x46, 0x6d, 0xb7, 0xbc, 0x9a, 0x9b, 0xe4, 0x3d, 0xf8, 0xae, 0x6b, 0x3c,
  0xd6, 0x02, 0x23, 0x3d, 0x0b, 0x63, 0xfe, 0x3c, 0x35, 0xa6, 0xab, 0xbd,
  0xa6, 0xb4, 0x28, 0xbe, 0xd4, 0xc3, 0x22, 0x3d, 0xbd, 0x29, 0xc5, 0x3d,
  0xbd, 0x5f, 0x8f, 0xbd, 0xb0, 0x24, 0x6e, 0xbf, 0x60, 0xcc, 0xfe, 0xbe,
  0xa6, 0x5c, 0x0c, 0xbf, 0x02, 0xe9, 0x02, 0xbf, 0x7b, 0x0d, 0x38, 0xbe,
  0xc9, 0xe7, 0x02, 0xbe, 0xb7, 0xf1, 0x3b, 0xbe, 0x3e, 0x2d, 0x5d, 0xbe,
  0xcb, 0x7f, 0x96, 0xbd, 0x0e, 0x9f, 0xbe, 0x3d, 0x2c, 0x19, 0xb9, 0x3d,
  0x55, 0x04, 0xb6, 0xbd, 0x3c, 0xdc, 0x85, 0xbc, 0xab, 0x33, 0x4d, 0xbe,
  0x39, 0xad, 0x56, 0xbd, 0x3f, 0x04, 0x47, 0x3e, 0x78, 0xa4, 0x23, 0xbe,
  0x7e, 0x2a, 0x63, 0xbe, 0xac, 0xed, 0xbe, 0x3d, 0xac, 0x06, 0x0f, 0xbf,
  0x7d, 0x47, 0x9d, 0xbd, 0x9d, 0xaf, 0x73, 0xbe, 0xfc, 0x77, 0xcd, 0x3e,
  0x0f, 0xbc, 0xe6, 0x3d, 0xe9, 0x35, 0xc0, 0xbd, 0x23, 0xfc, 0xa1, 0x3d,
  0xe2, 0xc2, 0x48, 0xbd, 0x4e, 0x0e, 0x37, 0xbb, 0x12, 0xa3, 0xbe, 0xbd,
  0x8d, 0x4d, 0xb7, 0xbe, 0x70, 0xb9, 0x27, 0x3d, 0x9c, 0xc8, 0x1a, 0x3e,
  0x4b, 0x2e, 0x6b, 0x3e, 0x76, 0xca, 0x4c, 0x3e, 0x52, 0x0e, 0xb8, 0xbd,
  0x5e, 0x47, 0xb3, 0xbd, 0xd7, 0x7c, 0x9a, 0x3d, 0x21, 0xc9, 0xbf, 0xbb,
  0xa6, 0x4a, 0x96, 0x3e, 0x39, 0x8e, 0xc7, 0xbc, 0x3b, 0x63, 0x8a, 0x3d,
  0x55, 0xa5, 0xfc, 0xbb, 0xc7, 0x9e, 0x40, 0xbd, 0x21, 0x45, 0x9b, 0x3d,
  0xc7, 0x51, 0xe1, 0xbd, 0xeb, 0xaf, 0x88, 0xbe, 0xdd, 0x60, 0x1a, 0x3e,
  0xcb, 0x49, 0x8b, 0xbe, 0x0e, 0xfd, 0xcf, 0x3c, 0xcd, 0x20, 0x02, 0x3f,
  0xba, 0xbb, 0x73, 0x3d, 0xad, 0x06, 0x16, 0x3e, 0x45, 0xdb, 0x0c, 0xbf,
  0x8b, 0x5a, 0x14, 0x3d, 0x3d, 0xf0, 0x02, 0x3e, 0xe3, 0x09, 0xb0, 0xbd,
  0x3e, 0x69, 0x53, 0x3d, 0x73, 0x39, 0x2b, 0xbc, 0xd4, 0xe2, 0x68, 0xbd,
  0x08, 0x93, 0x1f, 0x3d, 0x75, 0xe1, 0x8f, 0xbd, 0xe9, 0x7f, 0x24, 0xbd,
  0x2a, 0xe1, 0x73, 0x3e, 0x3a, 0x12, 0xe2, 0xbe, 0xef, 0x6e, 0xae, 0xbe,
  0xda, 0x1f, 0xaa, 0x3e, 0x78, 0xe8, 0xb1, 0xbd, 0xe4, 0x3a, 0x86, 0xbe,
  0xe1, 0xa8, 0x10, 0xbf, 0xf6, 0x04, 0x16, 0x3e, 0x01, 0x3b, 0xc0, 0x3e,
  0x73, 0xdc, 0xdd, 0xbe, 0xa6, 0x17, 0x2c, 0xbd, 0x23, 0xbc, 0x58, 0x3e,
  0x3a, 0xa8, 0x8b, 0x3e, 0xba, 0x98, 0xfc, 0xbc, 0x21, 0xd7, 0x30, 0xbd,
  0x3a, 0x6f, 0x73, 0xbd, 0xd2, 0x4d, 0x16, 0xbd, 0xb4, 0x30, 0x24, 0x3d,
  0xf0, 0xcf, 0xb7, 0xbe, 0x47, 0x3c, 0xa6, 0xbe, 0x24, 0x3c, 0xa6, 0xbe,
  0x87, 0x88, 0xf3, 0xbd, 0x89, 0xe9, 0x38, 0xbe, 0x0d, 0x1b, 0xb9, 0x3e,
  0x92, 0x61, 0x30, 0x3d, 0xee, 0xb6, 0x0a, 0xbe, 0x4c, 0x58, 0x9c, 0xbd,
  0x17, 0x60, 0x0e, 0x3e, 0x73, 0x82, 0x51, 0x3d, 0x2a, 0x51, 0x3a, 0x3e,
  0x06, 0xea, 0xff, 0x3d, 0x02, 0x33, 0xb1, 0xbe, 0xfc, 0xf0, 0xbe, 0xbe,
  0x36, 0x98, 0xfe, 0x3d, 0xa0, 0xc9, 0xdd, 0x38, 0x3d, 0x8d, 0xdf, 0xbe,
  0xc1, 0xb0, 0x8a, 0xbe, 0xcd, 0x61, 0x7c, 0xbd, 0x6d, 0x4f, 0xca, 0x3d,
  0x01, 0xfc, 0x0f, 0xbd, 0x33, 0x5f, 0x51, 0xbd, 0xf6, 0x07, 0x8d, 0xbe,
  0x90, 0xe2, 0x12, 0x3d, 0x66, 0x85, 0xa5, 0x3d, 0xf6, 0x9f, 0x3c, 0xbe,
  0x9a, 0xb6, 0x45, 0xbe, 0x50, 0x13, 0x23, 0x3b, 0x22, 0xeb, 0x9e, 0x3e,
  0x6a, 0x87, 0xbe, 0x3d, 0x4f, 0xe7, 0xcd, 0xbd, 0x45, 0x23, 0x28, 0xbe,
  0xc0, 0x91, 0x8a, 0xbd, 0xd3, 0x47, 0xc5, 0xbe, 0x03, 0x47, 0x47, 0xbe,
  0xbe, 0x82, 0x7d, 0xbe, 0x30, 0xff, 0xec, 0xbe, 0x58, 0x42, 0x2b, 0x3e,
  0xc1, 0xef, 0x01, 0x3d, 0x87, 0x4a, 0xb6, 0xbd, 0x4b, 0xaa, 0x26, 0x3e,
  0xb5, 0x42, 0x49, 0xbe, 0x15, 0x57, 0xf3, 0xbd, 0x9e, 0xce, 0x4e, 0x3d,
  0x55, 0xa9, 0x14, 0x3f, 0x46, 0x70, 0x80, 0xbc, 0x41, 0x00, 0xdb, 0x3c,
  0x4c, 0x0e, 0x23, 0xbd, 0x26, 0x6b, 0x06, 0x3d, 0xad, 0x7a, 0x87, 0x3e,
  0x00, 0xe7, 0x46, 0xbd, 0x18, 0xef, 0x88, 0x3b, 0x23, 0xc9, 0x08, 0xbe,
  0x9e, 0x09, 0x86, 0x3e, 0x8b, 0x47, 0xa2, 0x3d, 0xec, 0xe0, 0xdc, 0x3d,
  0x8f, 0xf1, 0x90, 0x3d, 0x9a, 0xb3, 0x94, 0xbd, 0x05, 0x85, 0xb2, 0x3d,
  0x74, 0x53, 0xa8, 0xbd, 0x60, 0xe9, 0x6e, 0x3e, 0x34, 0xaf, 0x47, 0xbe,
  0xa1, 0xd7, 0x26, 0xbd, 0x69, 0x03, 0xd5, 0x3d, 0x7f, 0xc3, 0xa4, 0x3d,
  0x63, 0x84, 0x46, 0x3d, 0xb4, 0xbe, 0xb7, 0xbe, 0x3d, 0xe1, 0x24, 0xbe,
  0xca, 0x00, 0x46, 0x3e, 0x1a, 0xb6, 0xfa, 0x3d, 0x09, 0xb2, 0x38, 0xbe,
  0x31, 0x99, 0x71, 0xbd, 0x98, 0xb8, 0xeb, 0xbd, 0xa7, 0x27, 0x87, 0xbe,
  0x15, 0x80, 0x07, 0x3d, 0xa7, 0x0b, 0x42, 0xbc, 0x77, 0xbc, 0xd8, 0x3e,
  0x44, 0xc5, 0xf5, 0x3d, 0xd0, 0xc9, 0x0b, 0x3e, 0xb6, 0x3c, 0xe1, 0xbd,
  0x17, 0x6e, 0x80, 0x3e, 0x36, 0xb9, 0xca, 0x3d, 0x6b, 0x6c, 0x93, 0xbe,
  0xfb, 0xab, 0xf4, 0xbd, 0x1b, 0x8c, 0x7c, 0x3d, 0x14, 0xfe, 0x9c, 0x3c,
  0xd1, 0xc6, 0x83, 0xbe, 0xbf, 0x7a, 0xec, 0xbc, 0x84, 0x9c, 0x1a, 0xbe,
  0x19, 0xc0, 0x9a, 0xbd, 0xeb, 0xe3, 0x06, 0x3e, 0x2a, 0xa7, 0x98, 0x3c,
  0x4b, 0x7e, 0x3e, 0x3e, 0x06, 0xbf, 0x1f, 0x3e, 0x5d, 0xd9, 0xa0, 0xbd,
  0x8a, 0x3a, 0x38, 0xbe, 0x19, 0xb2, 0x0d, 0x3e, 0xba, 0xaf, 0xeb, 0x3d,
  0x03, 0x52, 0xec, 0xbe, 0x1d, 0xea, 0x31, 0xbe, 0xf0, 0x39, 0x2b, 0x3e,
  0xe1, 0x4c, 0xa2, 0xbc, 0x0e, 0xab, 0xf1, 0xbd, 0x0a, 0x2f, 0xce, 0xbd,
  0xf2, 0x4f, 0xab, 0x3e, 0xcc, 0xd4, 0x59, 0x3e, 0x99, 0x6a, 0xb1, 0xbc,
  0xc7, 0x0e, 0x57, 0xbd, 0x75, 0x04, 0xfd, 0x3e, 0x47, 0x44, 0xa7, 0x39,
  0xae, 0xd7, 0x99, 0xbd, 0x84, 0x0d, 0xdd, 0xbe, 0x36, 0xa3, 0x9d, 0xbd,
  0x0d, 0x79, 0x38, 0xbe, 0xb2, 0xf6, 0xe7, 0xbe, 0xcb, 0x97, 0x0e, 0xbe,
  0xc0, 0xa9, 0x8e, 0xbd, 0xbf, 0xc8, 0x5d, 0xbe, 0x2c, 0x59, 0xe6, 0xbd,
  0xb9, 0xf1, 0x07, 0xbe, 0x6d, 0x64, 0x95, 0x3e, 0x2a, 0xbc, 0x31, 0x3d,
  0x9d, 0xf8, 0xba, 0xbd, 0x7f, 0x30, 0x04, 0xbd, 0xf0, 0x10, 0x99, 0xbd,
  0x44, 0xfb, 0x2c, 0x3c, 0xf5, 0x87, 0x3d, 0xbd, 0x86, 0x56, 0xc2, 0xbe,
  0x19, 0x07, 0x95, 0xbd, 0xf5, 0xa9, 0xf9, 0xbd, 0x1a, 0x30, 0xa5, 0xbe,
  0x8d, 0x6c, 0x09, 0xbc, 0x97, 0xbd, 0x1b, 0xbc, 0x96, 0x6d, 0x17, 0xbd,
  0x16, 0x7e, 0xae, 0xbd, 0x8b, 0x8c, 0x96, 0xbc, 0x95, 0x35, 0x53, 0x3e,
  0xb4, 0x79, 0xcb, 0xbd, 0x68, 0x10, 0xdd, 0xbd, 0x05, 0xed, 0x32, 0x3d,
  0x67, 0x89, 0xd6, 0xbd, 0x03, 0x4f, 0x89, 0xbe, 0x79, 0x7a, 0x00, 0x3c,
  0xb5, 0x6e, 0x2b, 0xbe, 0x7e, 0x71, 0xa5, 0x3d, 0x7b, 0x98, 0x1f, 0x3d,
  0x44, 0x91, 0x1e, 0xbc, 0x0c, 0x20, 0x94, 0xbe, 0xc6, 0xee, 0x2d, 0x3e,
  0x59, 0x43, 0xe9, 0x3b, 0x4c, 0x7f, 0x77, 0xbe, 0xea, 0xef, 0x1f, 0xbe,
  0x97, 0x17, 0xca, 0xbd, 0x38, 0x2a, 0x20, 0xbe, 0x70, 0x73, 0x90, 0xbe,
  0x16, 0xe0, 0x86, 0xbd, 0x36, 0xee, 0x40, 0xbe, 0xc4, 0x5e, 0xb5, 0x3c,
  0xdd, 0x1b, 0xbb, 0xbd, 0x3d, 0xfa, 0xb6, 0xbc, 0x7a, 0x94, 0x9d, 0xbe,
  0xed, 0xf0, 0x0e, 0x3e, 0xe6, 0xf6, 0x0f, 0x3e, 0x10, 0xb7, 0x89, 0xbe,
  0xb7, 0x40, 0xdf, 0xbd, 0x06, 0xc7, 0x9f, 0x3d, 0x6e, 0xe3, 0x3d, 0xbe,
  0xad, 0xcc, 0x53, 0xbd, 0x6c, 0x0f, 0x2a, 0xbe, 0x72, 0xcf, 0x0e, 0xbe,
  0xd9, 0x8d, 0x43, 0x3d, 0x2c, 0xd4, 0x3f, 0xbe, 0xf5, 0x0f, 0xd4, 0x3d,
  0x30, 0x75, 0x3c, 0xbd, 0x9a, 0xc4, 0x10, 0xbe, 0x8f, 0xc4, 0x2f, 0xbe,
  0xf0, 0xe7, 0x8e, 0xbe, 0x90, 0x74, 0x6c, 0xbd, 0x6c, 0x4d, 0xb8, 0xbd,
  0x18, 0x24, 0x17, 0xbd, 0xba, 0xc8, 0x31, 0xbe, 0xa6, 0x58, 0x3c, 0xbe,
  0x21, 0x4a, 0xb3, 0xbd, 0x16, 0x07, 0x45, 0xbd, 0xc5, 0x59, 0x57, 0x3e,
  0x12, 0xef, 0x5a, 0xbe, 0x09, 0xbe, 0x90, 0xbe, 0xba, 0x74, 0x6f, 0xbc,
  0x5c, 0xee, 0x23, 0x3e, 0x54, 0xbe, 0x10, 0x3e, 0xcd, 0x2b, 0x6b, 0xbe,
  0xae, 0xe3, 0x59, 0xbe, 0xc3, 0xb0, 0x3b, 0x3e, 0x83, 0xe3, 0x52, 0x3c,
  0xf0, 0x6c, 0xf9, 0xbd, 0x4c, 0x1e, 0x22, 0xbe, 0x34, 0x76, 0xfe, 0x3d,
  0x21, 0xd0, 0x02, 0xbc, 0x65, 0xc8, 0x63, 0xbe, 0x38, 0x34, 0x47, 0xbe,
  0x24, 0x1d, 0xe1, 0xbd, 0x13, 0x05, 0x77, 0xbd, 0x5e, 0xe0, 0x88, 0xbc,
  0xd6, 0xf7, 0x64, 0x3a, 0x86, 0x9f, 0x50, 0xbe, 0x4c, 0xfc, 0x43, 0xbe,
  0xd9, 0x59, 0xc9, 0x3c, 0x9a, 0x23, 0x76, 0xbe, 0x1e, 0xe3, 0x83, 0xbe,
  0x35, 0x5c, 0x0b, 0x3c, 0xb1, 0x42, 0x24, 0xbd, 0x5d, 0xc5, 0x24, 0xbe,
  0x99, 0x12, 0x0c, 0x3e, 0x70, 0xd3, 0x67, 0x3c, 0xdd, 0x09, 0x2e, 0xbc,
  0x80, 0x38, 0x0c, 0xbe, 0xd4, 0xe8, 0x68, 0xbe, 0x54, 0x8e, 0x82, 0xbe,
  0x15, 0x9c, 0x62, 0x3d, 0xe6, 0xbc, 0x4f, 0xbe, 0xa4, 0x79, 0x34, 0xbe,
  0xef, 0xf3, 0x19, 0x3e, 0x2a, 0x30, 0x5c, 0xbd, 0x41, 0x05, 0x34, 0xbd,
  0x59, 0x97, 0x37, 0xbe, 0x16, 0x49, 0xb4, 0xbd, 0x5c, 0x0c, 0xed, 0xbc,
  0x2b, 0x9c, 0x9d, 0xbe, 0xaf, 0x00, 0x27, 0x3d, 0xa6, 0xd8, 0x81, 0xbd,
  0x32, 0x67, 0x39, 0xbe, 0x7a, 0x6d, 0x6d, 0xbd, 0x6d, 0xc7, 0x0d, 0xbe,
  0x41, 0x0c, 0x89, 0xbe, 0x83, 0x1e, 0x87, 0xbe, 0x64, 0x4a, 0x30, 0xbe,
  0x27, 0x7e, 0x87, 0xbe, 0xa8, 0xf5, 0x76, 0x3d, 0xf3, 0x89, 0x8e, 0xbe,
  0x21, 0x7b, 0x5c, 0xba, 0xb8, 0xdc, 0x19, 0xbe, 0x2a, 0x30, 0xa2, 0x3b,
  0x61, 0x09, 0x5e, 0xbe, 0x81, 0x95, 0x74, 0xbe, 0xc0, 0x39, 0xd8, 0xbd,
  0xb3, 0x17, 0x08, 0x3c, 0x63, 0xbb, 0x91, 0xbd, 0x3f, 0x39, 0x86, 0xbe,
  0x23, 0x01, 0x6e, 0xbd, 0x1d, 0xb9, 0x49, 0xbd, 0x7f, 0x5b, 0xea, 0xbe,
  0xe8, 0xab, 0x9f, 0xbd, 0x29, 0x8c, 0x78, 0x3f, 0x0e, 0xb1, 0x2b, 0xbe,
  0x2a, 0x7c, 0xc8, 0x3d, 0x34, 0x36, 0x3d, 0xbe, 0x1b, 0x63, 0xc7, 0x3e,
  0x7a, 0x41, 0x36, 0xbe, 0xea, 0xcd, 0x95, 0xbe, 0x10, 0x20, 0x0f, 0xbe,
  0xc4, 0x29, 0x0d, 0xbe, 0x72, 0x2a, 0x51, 0xbd, 0x46, 0x89, 0xc7, 0x3d,
  0xa4, 0x31, 0xb3, 0xbd, 0xd2, 0x61, 0x81, 0xbe, 0x07, 0x19, 0xb2, 0xbd,
  0xb7, 0x08, 0x3f, 0xbd, 0xf2, 0x9f, 0x35, 0xbe, 0x3b, 0xdd, 0x76, 0x40,
  0x8a, 0x02, 0x60, 0x3e, 0x75, 0x8e, 0x48, 0xbe, 0x64, 0xeb, 0x1a, 0xbe,
  0x88, 0x2f, 0x6a, 0x3e, 0x67, 0x43, 0x05, 0x3f, 0xc9, 0x1d, 0xba, 0xbe,
  0x19, 0x44, 0xe5, 0xbe, 0x39, 0x2f, 0x87, 0x3e, 0xa9, 0x53, 0x01, 0x3e,
  0x8c, 0x5a, 0x34, 0x3e, 0x4f, 0x19, 0x4b, 0xbe, 0x11, 0x78, 0x38, 0x3e,
  0x6b, 0xb0, 0x01, 0x3e, 0xc2, 0x36, 0x20, 0xbe, 0xea, 0x2e, 0x84, 0xbd,
  0x30, 0x3e, 0x6b, 0x40, 0xb2, 0x43, 0x13, 0x3e, 0x32, 0xd4, 0x14, 0x3e,
  0x27, 0x82, 0x6b, 0x3e, 0xe3, 0x32, 0xbe, 0x3e, 0x10, 0x05, 0x43, 0x3e,
  0xcf, 0xd0, 0x3c, 0xbe, 0xec, 0x50, 0xb2, 0xbe, 0x74, 0xf5, 0xad, 0xbd,
  0xe8, 0x4a, 0xba, 0xbc, 0x4a, 0x09, 0x1f, 0x3e, 0x70, 0xe2, 0xaf, 0xbd,
  0x0f, 0xbe, 0xff, 0x3d, 0x2f, 0xe9, 0x3e, 0x3e, 0xb4, 0xe2, 0xbf, 0xbe,
  0xe3, 0x80, 0x8a, 0xbe, 0x11, 0x01, 0x81, 0x40, 0x44, 0xaf, 0xf9, 0xbd,
  0xe8, 0xc9, 0x91, 0x3d, 0xe8, 0x59, 0x45, 0xbe, 0xea, 0x19, 0x08, 0x3f,
  0x0c, 0x05, 0x71, 0xbd, 0x44, 0x93, 0xe7, 0xbd, 0x13, 0x5d, 0x40, 0xbe,
  0xef, 0x90, 0x21, 0xbe, 0xa1, 0x7b, 0x4a, 0x3c, 0xe7, 0x98, 0xab, 0x3e,
  0xfb, 0xaa, 0xe4, 0xbd, 0x56, 0x18, 0xf6, 0x3c, 0xe2, 0xee, 0xab, 0xbc,
  0x48, 0x49, 0x75, 0xbe, 0x6e, 0xf9, 0x9b, 0xbe, 0x46, 0xd1, 0x5d, 0x40,
  0xf3, 0x27, 0x88, 0x3c, 0x57, 0x68, 0x2d, 0x3e, 0xab, 0xea, 0x45, 0xbe,
  0xe7, 0xbf, 0x0f, 0x3f, 0x38, 0xb8, 0xe3, 0x3e, 0x60, 0xe8, 0x8f, 0xbc,
  0x6d, 0xd0, 0x70, 0xbe, 0xae, 0x53, 0x41, 0x3e, 0xae, 0x4a, 0x05, 0x3e,
  0xb8, 0x0e, 0x43, 0x3d, 0x45, 0xda, 0x1f, 0x3d, 0xdd, 0x69, 0xd9, 0xbd,
  0x3d, 0x12, 0x07, 0xbc, 0x5a, 0x6d, 0x3c, 0xbc, 0xbf, 0x22, 0x09, 0xbe,
  0x61, 0x5b, 0x67, 0x40, 0xe9, 0xa2, 0x6b, 0x3e, 0xa4, 0x03, 0x8b, 0x3e,
  0x8b, 0xaf, 0x71, 0xbe, 0xa2, 0xdc, 0x2b, 0x3f, 0x16, 0xb3, 0x63, 0x3d,
  0x87, 0x3f, 0x93, 0x3b, 0xc5, 0x8c, 0xe9, 0xbe, 0x09, 0xc6, 0x9d, 0x3d,
  0x6e, 0x9b, 0x93, 0x3e, 0xa1, 0x41, 0xcf, 0xbe, 0x3a, 0xab, 0x7f, 0x3e,
  0x22, 0x59, 0x89, 0xbd, 0xab, 0x19, 0x8f, 0x3d, 0xc6, 0x13, 0xa1, 0x3c,
  0xec, 0x3a, 0x8f, 0xbe, 0xdf, 0x03, 0xe5, 0x3d, 0x76, 0x91, 0x44, 0xbc,
  0x28, 0x2a, 0x16, 0xbe, 0x63, 0x69, 0x69, 0xbe, 0x2a, 0xb9, 0x16, 0x3e,
  0xd1, 0x11, 0x0f, 0xbd, 0x2d, 0x22, 0x0e, 0x3e, 0x4b, 0x42, 0xe5, 0xbc,
  0x71, 0x21, 0x12, 0x3b, 0xc8, 0xe8, 0x9e, 0xbc, 0x82, 0x90, 0x7f, 0x3d,
  0xf8, 0x46, 0x59, 0xbc, 0xad, 0x97, 0xf4, 0xbc, 0x52, 0x60, 0x56, 0x3e,
  0xdf, 0x57, 0x85, 0xbd, 0x3d, 0x56, 0x8d, 0xbe, 0x79, 0xd2, 0x12, 0xbe,
  0x48, 0x0f, 0xd3, 0x3d, 0xda, 0x9c, 0x8a, 0xbe, 0xc5, 0x06, 0x59, 0xbe,
  0xcd, 0xb5, 0x57, 0xbf, 0xbd, 0x91, 0x52, 0xbc, 0xd6, 0xd8, 0x58, 0xbe,
  0xe0, 0x28, 0x9d, 0x3b, 0xa1, 0x3b, 0x84, 0x3d, 0x2e, 0x11, 0xc2, 0xbd,
  0xd7, 0x3e, 0x98, 0xbe, 0xa4, 0x31, 0xfd, 0x3b, 0xbb, 0x7c, 0xdf, 0x3c,
  0x8e, 0x2e, 0x83, 0xbd, 0x69, 0xaa, 0xb0, 0x3d, 0xf0, 0xa0, 0xc9, 0x3c,
  0xdc, 0xcf, 0xcf, 0xbe, 0xea, 0x27, 0x2f, 0x3d, 0x26, 0x25, 0x8f, 0x3c,
  0xdd, 0xfc, 0x48, 0xbd, 0xe5, 0xfa, 0x0c, 0xbf, 0x3d, 0x28, 0x11, 0x3b,
  0x88, 0x93, 0xde, 0xbe, 0x74, 0x84, 0xc5, 0x3c, 0x63, 0x81, 0x25, 0x3e,
  0x82, 0xeb, 0xa8, 0x3d, 0x27, 0xec, 0xa3, 0x3d, 0xca, 0x9c, 0x6d, 0x3c,
  0x51, 0x1a, 0x87, 0x3d, 0x5b, 0xa8, 0xf0, 0xbd, 0x92, 0xf7, 0x48, 0xbc,
  0xa3, 0xc9, 0xee, 0x3c, 0xb5, 0x6f, 0xdd, 0xbe, 0x5c, 0xd4, 0x99, 0x3d,
  0x06, 0xd5, 0xe2, 0x3d, 0x77, 0x46, 0x5b, 0xbe, 0x29, 0xe1, 0x8d, 0xbe,
  0x19, 0xdd, 0xb6, 0xbc, 0x05, 0x77, 0xd2, 0xbe, 0x74, 0xd2, 0xd7, 0x3a,
  0x28, 0xfc, 0x2a, 0x3e, 0x71, 0x91, 0x34, 0x3d, 0xb0, 0xa8, 0x18, 0xbe,
  0x4e, 0xed, 0x01, 0x3d, 0xab, 0x97, 0xbd, 0x3d, 0xe3, 0x12, 0xd0, 0x3d,
  0xb3, 0x33, 0x43, 0x3d, 0xc1, 0x56, 0xbb, 0xbb, 0xe8, 0x44, 0x06, 0xbf,
  0x9b, 0x8c, 0x47, 0x3e, 0x02, 0xb3, 0x19, 0x3d, 0x08, 0x29, 0x94, 0xbd,
  0x5b, 0xdb, 0x1f, 0x3e, 0xee, 0x62, 0xde, 0xba, 0x0a, 0x99, 0x9e, 0xbe,
  0x3a, 0x29, 0x2d, 0x3c, 0x36, 0xb2, 0xfa, 0x3d, 0x7a, 0x47, 0x51, 0xbd,
  0x5a, 0x69, 0x3b, 0xbd, 0x83, 0x90, 0xc9, 0x3d, 0xf5, 0x9e, 0x0c, 0x3d,
  0x65, 0xe1, 0x9c, 0x3d, 0x2d, 0xb1, 0x76, 0xbc, 0x5f, 0xc9, 0x9e, 0x3c,
  0x22, 0x20, 0x97, 0xbe, 0x25, 0x0d, 0x10, 0xbd, 0x23, 0xee, 0xca, 0xbd,
  0x48, 0x7b, 0x5f, 0xbe, 0x66, 0xcc, 0x3c, 0x3e, 0x1e, 0xc8, 0x95, 0x3d,
  0xb6, 0x3a, 0x67, 0xbe, 0x11, 0x90, 0xcd, 0xbc, 0xf3, 0x39, 0x8f, 0x3e,
  0xf1, 0x85, 0x8a, 0x3c, 0x83, 0x36, 0x76, 0xbd, 0x6a, 0x0b, 0x86, 0x3d,
  0xe4, 0x0f, 0xac, 0xbc, 0x49, 0x4f, 0xcf, 0x3d, 0x1a, 0x7f, 0x94, 0x3b,
  0x5d, 0x91, 0xeb, 0x3c, 0x34, 0x1a, 0x22, 0xbe, 0xf2, 0x71, 0xad, 0x3e,
  0x0a, 0xff, 0xaa, 0xbe, 0xf1, 0x16, 0xad, 0xbd, 0x26, 0x8c, 0x2b, 0xbe,
  0xd5, 0x94, 0x30, 0x3e, 0x84, 0x13, 0xd0, 0xbd, 0x0e, 0xa0, 0x7e, 0xbb,
  0x27, 0x9a, 0x80, 0x3e, 0x12, 0x9b, 0xae, 0x3d, 0xb1, 0x05, 0xbd, 0xbd,
  0x03, 0x51, 0xbe, 0xbc, 0xea, 0xa0, 0x9c, 0xbd, 0xe9, 0x10, 0x36, 0xbe,
  0x2f, 0x54, 0xe4, 0x3c, 0x48, 0x13, 0xd5, 0x3c, 0xdf, 0xc5, 0x74, 0xbd,
  0xc7, 0xba, 0x61, 0x3e, 0x65, 0x24, 0x37, 0xbe, 0xf2, 0x50, 0x4a, 0xbe,
  0xf1, 0xe9, 0xb1, 0xbe, 0x1d, 0x94, 0xcb, 0x3e, 0x92, 0x2c, 0xd4, 0xbd,
  0x7f, 0x6e, 0x2b, 0x3e, 0xfa, 0xe6, 0xae, 0x3c, 0x63, 0xf5, 0x93, 0x3d,
  0x25, 0x4f, 0x18, 0x3c, 0xab, 0xe7, 0x43, 0x3a, 0xdc, 0xe5, 0x08, 0xbc,
  0xce, 0xb2, 0x4f, 0xbe, 0x37, 0xc8, 0x1a, 0x3e, 0x59, 0xec, 0x10, 0x3d,
  0x2a, 0xab, 0x85, 0xbd, 0x9d, 0xad, 0xef, 0x3c, 0x72, 0x82, 0x12, 0xbe,
  0xb1, 0x43, 0x85, 0xbe, 0x06, 0x24, 0x8d, 0xbe, 0xe7, 0xf2, 0x6f, 0xbe,
  0x40, 0x48, 0x73, 0xbe, 0xe5, 0xa9, 0x58, 0xbe, 0xba, 0xe9, 0x27, 0xbd,
  0x64, 0x07, 0x94, 0xbe, 0x63, 0xf7, 0xa5, 0xbe, 0x05, 0x04, 0x7a, 0xbe,
  0x13, 0x52, 0x5d, 0x3e, 0xc1, 0x02, 0x0f, 0x3e, 0x6a, 0xa1, 0x9e, 0xbe,
  0x19, 0xae, 0x02, 0xbe, 0x38, 0x72, 0x67, 0xbc, 0xa8, 0xa1, 0x3d, 0x3e,
  0x71, 0xf4, 0xcf, 0x3e, 0xcf, 0xa3, 0x47, 0x3d, 0x94, 0x90, 0x03, 0xbe,
  0x0e, 0xf8, 0x5a, 0xbd, 0x05, 0x32, 0x05, 0xbc, 0x69, 0x89, 0x03, 0x3e,
  0x09, 0xa1, 0xeb, 0x3d, 0x9b, 0x7d, 0xc0, 0x3e, 0x5e, 0xdd, 0xe5, 0x3d,
  0x69, 0x8f, 0x92, 0xbe, 0x8d, 0xca, 0xf9, 0x3d, 0x43, 0x94, 0xab, 0xbd,
  0xcd, 0x7a, 0x49, 0x3e, 0x32, 0xe0, 0x01, 0xbd, 0x7f, 0x02, 0x0d, 0xbe,
  0x55, 0x5b, 0x67, 0x3c, 0xc9, 0x54, 0x9b, 0xbd, 0xf0, 0xd3, 0xff, 0x3d,
  0x3b, 0xb2, 0x11, 0x3e, 0xf5, 0x54, 0x03, 0x3c, 0x0f, 0x7a, 0x3c, 0xbe,
  0x40, 0x65, 0x87, 0x3d, 0x07, 0x19, 0x10, 0x3e, 0x5c, 0xd0, 0x8d, 0x3e,
  0xb3, 0xf8, 0x5c, 0xbd, 0x76, 0xf5, 0xea, 0xbc, 0x01, 0x57, 0xbb, 0xbd,
  0xc1, 0x03, 0xa4, 0x3c, 0x9a, 0x22, 0xb7, 0xbc, 0x25, 0xa5, 0x9e, 0x3d,
  0x78, 0xd9, 0xd1, 0xbd, 0x6a, 0x26, 0x0b, 0xbe, 0x70, 0x8e, 0x9f, 0xbc,
  0x41, 0x0d, 0xe2, 0x3d, 0x7f, 0x4a, 0x24, 0xbe, 0x78, 0xf5, 0x00, 0xbe,
  0xa1, 0x6e, 0x03, 0xbd, 0x16, 0x8c, 0x19, 0xbe, 0x4d, 0x5e, 0xa3, 0x3b,
  0xa9, 0x01, 0xce, 0xbd, 0xd7, 0x92, 0xf5, 0xbd, 0x13, 0x59, 0x81, 0xbd,
  0x05, 0x69, 0x55, 0xbe, 0xda, 0x3a, 0x48, 0x3c, 0xca, 0x91, 0x5f, 0xbe,
  0xfa, 0x7e, 0x0a, 0xbd, 0xd3, 0x56, 0x9c, 0x3c, 0x5d, 0x79, 0x6e, 0xbe,
  0xc8, 0xc0, 0xa7, 0xbe, 0x85, 0x9e, 0x2b, 0x3d, 0x49, 0x9e, 0x18, 0xbe,
  0x32, 0xa4, 0xad, 0x3e, 0x93, 0xe9, 0x76, 0x3d, 0x8c, 0xd1, 0x40, 0xbe,
  0xe2, 0x61, 0xae, 0xbb, 0x8f, 0x5a, 0x8e, 0x3e, 0x7b, 0x5f, 0x8e, 0xbe,
  0x1c, 0xb6, 0xa5, 0xbd, 0x09, 0x4d, 0x85, 0xbe, 0x88, 0x06, 0xef, 0x3d,
  0x55, 0x57, 0x0f, 0xbe, 0xbd, 0x24, 0x17, 0xbe, 0xeb, 0x3d, 0xd7, 0x3c,
  0xf8, 0x22, 0xe6, 0xbc, 0xb9, 0xc8, 0x4e, 0x3d, 0x8b, 0x9f, 0x59, 0x3c,
  0x44, 0x77, 0x24, 0x3e, 0xbb, 0x2d, 0xbd, 0x3c, 0x29, 0x24, 0x20, 0x3d,
  0x4e, 0x37, 0x0d, 0xbe, 0x3c, 0xbe, 0x43, 0x3e, 0x1d, 0xc4, 0xc1, 0xbd,
  0x13, 0x41, 0xfc, 0xbd, 0x8d, 0x90, 0xe0, 0xbd, 0x63, 0x7b, 0x80, 0xbb,
  0x10, 0x22, 0x49, 0x3e, 0x68, 0xf9, 0x79, 0xbc, 0xea, 0xf6, 0x81, 0xbd,
  0x25, 0x9c, 0x95, 0xbe, 0x82, 0x13, 0xcb, 0xbd, 0x30, 0x4c, 0x72, 0x3d,
  0x1c, 0xf1, 0xc5, 0xbd, 0x17, 0x54, 0xd6, 0xbe, 0xc3, 0xce, 0x01, 0x3e,
  0xd4, 0xa8, 0x92, 0xbd, 0x35, 0x61, 0x43, 0x3c, 0x97, 0xcd, 0xc8, 0x3c,
  0x38, 0xf0, 0xde, 0xbd, 0x9a, 0x01, 0x0f, 0xbe, 0xef, 0x01, 0x7b, 0xbe,
  0x53, 0x93, 0x42, 0xbd, 0xc6, 0x78, 0xcf, 0x3c, 0x4d, 0xa3, 0xe9, 0xbd,
  0x45, 0x00, 0x83, 0x3d, 0x5c, 0xe8, 0x99, 0xbd, 0x12, 0xed, 0x6f, 0xba,
  0xcf, 0x21, 0x5e, 0xbe, 0xed, 0xf1, 0xed, 0xbd, 0xb4, 0x4b, 0xf3, 0xbd,
  0xda, 0x4d, 0x3b, 0x3e, 0x6b, 0x48, 0xd7, 0xbd, 0xe9, 0x03, 0x99, 0x3d,
  0x37, 0x7f, 0xce, 0xbe, 0xbc, 0x2e, 0x05, 0xbe, 0xd9, 0xc4, 0x27, 0xbe,
  0xb1, 0x37, 0x29, 0x3c, 0x06, 0x78, 0x8f, 0xbe, 0xa2, 0x93, 0x8e, 0xbd,
  0x0d, 0x7b, 0x42, 0x3e, 0x5d, 0xb3, 0x61, 0xbd, 0xdd, 0x8d, 0x28, 0xbe,
  0x9b, 0xee, 0x01, 0x3e, 0x0b, 0x1e, 0x5c, 0x3e, 0x3e, 0x98, 0xe0, 0x3d,
  0xd6, 0xc1, 0x80, 0xbe, 0x1b, 0xd5, 0xb0, 0xbd, 0x64, 0x85, 0x30, 0xbe,
  0x2e, 0x3d, 0xa5, 0xbb, 0x45, 0x82, 0x61, 0x3d, 0x6d, 0x83, 0x98, 0xbd,
  0xf1, 0x72, 0xd7, 0x3d, 0x18, 0x46, 0x66, 0x3d, 0x86, 0xda, 0xed, 0xbd,
  0xe2, 0x6b, 0x07, 0xbe, 0xa9, 0x0b, 0x12, 0x3e, 0x88, 0x2b, 0xb0, 0x3c,
  0x0f, 0x0b, 0x33, 0xbe, 0xe7, 0x29, 0x8f, 0x3d, 0x28, 0xa8, 0x48, 0x3e,
  0x6e, 0x79, 0x0e, 0xbe, 0x77, 0x8c, 0x2b, 0x3d, 0x13, 0x53, 0xfd, 0xbc,
  0xbe, 0xd0, 0x15, 0xbe, 0x9b, 0x5f, 0xe1, 0x3c, 0x6a, 0x3a, 0x7a, 0x3e,
  0x9e, 0x65, 0x8e, 0x3d, 0xf7, 0xac, 0x27, 0x3e, 0xd4, 0xa3, 0x0d, 0x3e,
  0x3e, 0x07, 0xe4, 0x3d, 0x78, 0x78, 0x0a, 0xbd, 0xb9, 0xd0, 0xa3, 0x3d,
  0x00, 0xe7, 0xd1, 0xbd, 0xc1, 0x13, 0xf8, 0xbd, 0xe9, 0x5d, 0xca, 0x3d,
  0x65, 0x6f, 0xd2, 0x3c, 0x09, 0xd8, 0x38, 0x3e, 0x68, 0xee, 0x06, 0x3d,
  0xfa, 0x64, 0x61, 0x3e, 0x66, 0xe4, 0x0d, 0xbc, 0x61, 0xf8, 0xa4, 0x3c,
  0x00, 0x39, 0x4e, 0x3e, 0x07, 0x81, 0x30, 0x3a, 0x91, 0xa5, 0x1a, 0x3d,
  0x8b, 0x4f, 0xe9, 0x3d, 0xf8, 0x4b, 0xc1, 0xbd, 0x02, 0x06, 0xab, 0x3d,
  0x7f, 0xc6, 0xf3, 0x3d, 0xd1, 0x3b, 0x97, 0xbe, 0xa8, 0xb5, 0x8b, 0xbe,
  0x2e, 0xef, 0x31, 0xbe, 0x48, 0xe2, 0x06, 0xbe, 0x25, 0xe0, 0x62, 0xbc,
  0x32, 0x52, 0x47, 0x3e, 0x94, 0x34, 0x97, 0x3d, 0x43, 0xff, 0x6d, 0x3c,
  0x18, 0x50, 0x29, 0x3d, 0x48, 0xde, 0x56, 0x3e, 0x96, 0x1a, 0x5d, 0x3e,
  0x89, 0xa5, 0x66, 0xbe, 0x48, 0x1e, 0x1f, 0x3e, 0x7f, 0x4b, 0xcd, 0xbe,
  0xbf, 0xd9, 0x16, 0x3c, 0x25, 0xfc, 0x8b, 0x3e, 0xd4, 0xcd, 0x7f, 0xbe,
  0xaf, 0x6b, 0x08, 0xbe, 0xf3, 0x75, 0xa5, 0xbe, 0x4a, 0x88, 0xc4, 0xbe,
  0x7e, 0x31, 0x33, 0x3d, 0x07, 0x1c, 0x1b, 0x3d, 0x42, 0xc5, 0xe9, 0x3c,
  0x76, 0x7a, 0x7c, 0xbc, 0xbb, 0x49, 0xc6, 0x3c, 0x52, 0xad, 0xb4, 0x3e,
  0x44, 0x35, 0x9e, 0xbd, 0x82, 0x61, 0xa9, 0xbe, 0xe7, 0x54, 0x87, 0x3d,
  0x42, 0xad, 0x00, 0xbf, 0xc2, 0x68, 0x8e, 0xbe, 0xb3, 0x06, 0x44, 0x3d,
  0x68, 0xe6, 0x8f, 0xbe, 0x15, 0x35, 0xd4, 0xbe, 0x5f, 0x77, 0xc5, 0x3c,
  0xf9, 0x2f, 0xc7, 0xbc, 0xed, 0x69, 0x43, 0xbd, 0xbb, 0xbf, 0x20, 0xbe,
  0x88, 0xe0, 0x1f, 0x3e, 0xda, 0xb3, 0x84, 0xbd, 0xd9, 0xab, 0x72, 0x3c,
  0xe6, 0x50, 0xc4, 0x3d, 0x85, 0xab, 0x9b, 0x3b, 0x22, 0x6d, 0x11, 0xbe,
  0x12, 0x39, 0xf0, 0x3d, 0x7d, 0xe2, 0x94, 0xbe, 0x35, 0xcf, 0x9f, 0xbd,
  0xa1, 0x40, 0xfd, 0x3d, 0xa1, 0xd6, 0xb4, 0xbd, 0x0d, 0x5e, 0x3a, 0x3f,
  0xf9, 0x81, 0x92, 0xbe, 0xc2, 0x80, 0x5e, 0x3d, 0xb2, 0x4c, 0xfb, 0xbd,
  0xda, 0xcf, 0xbf, 0x3e, 0xaf, 0x5c, 0xa3, 0xbc, 0x4e, 0xc0, 0x28, 0xbe,
  0xfa, 0xf0, 0x91, 0xbd, 0xe3, 0xd3, 0x6d, 0x3d, 0x9c, 0x4d, 0x18, 0x3d,
  0xc6, 0xc2, 0x46, 0x3c, 0xe9, 0xe2, 0x88, 0xbd, 0xa5, 0xa5, 0x2a, 0xbe,
  0x8d, 0x48, 0x4d, 0x3e, 0x7f, 0x9e, 0x3e, 0x3d, 0x59, 0xb4, 0x7b, 0xbe,
  0x34, 0xc8, 0x66, 0x40, 0x18, 0xf8, 0xd7, 0xbd, 0x9c, 0xd5, 0xf9, 0x3d,
  0x9e, 0x5c, 0x21, 0x3e, 0x81, 0x74, 0x86, 0x3e, 0xbb, 0xc9, 0x93, 0x3d,
  0xef, 0xe3, 0x33, 0xbe, 0x86, 0x67, 0x28, 0xbf, 0x6b, 0x4d, 0x0b, 0xbe,
  0xa8, 0x6d, 0xfd, 0x3d, 0x74, 0xab, 0xba, 0x3e, 0x9d, 0x3d, 0x06, 0xbd,
  0xf1, 0x63, 0x19, 0x3e, 0xaf, 0x43, 0x91, 0x3d, 0x2e, 0x76, 0x21, 0xbe,
  0x3c, 0x83, 0xad, 0xbe, 0xf4, 0x9c, 0x65, 0x40, 0x68, 0x2b, 0x84, 0x3d,
  0xa3, 0x49, 0xbe, 0x3e, 0x93, 0x0e, 0x23, 0xbd, 0x6a, 0x8e, 0xca, 0x3e,
  0x9c, 0xb2, 0xe7, 0x3d, 0x88, 0x27, 0xb3, 0xbd, 0x36, 0x98, 0xff, 0xbe,
  0x53, 0xb6, 0x77, 0xbe, 0xee, 0x47, 0xb0, 0xbe, 0x56, 0x1d, 0x9d, 0x3e,
  0x79, 0x47, 0xee, 0xbd, 0x7b, 0xaa, 0x2f, 0xbe, 0xea, 0x7b, 0x66, 0x3d,
  0x39, 0x04, 0x7c, 0xbe, 0x07, 0xd6, 0xc9, 0xbd, 0xe7, 0xb3, 0x5c, 0x40,
  0x09, 0xd0, 0x30, 0xbe, 0x11, 0xdd, 0xc3, 0x3b, 0x1e, 0x56, 0x91, 0x3d,
  0xfd, 0xde, 0xc1, 0x3e, 0x49, 0x3b, 0xce, 0xbd, 0x89, 0x05, 0x57, 0xbe,
  0x25, 0xa3, 0xf3, 0xbe, 0x65, 0x6f, 0x20, 0xbd, 0x4f, 0x57, 0xce, 0xbd,
  0x93, 0xab, 0x13, 0x3e, 0x3a, 0xba, 0x98, 0xbd, 0xa0, 0xf6, 0xc7, 0xbd,
  0xc7, 0xb6, 0x1a, 0x3d, 0x9d, 0x63, 0xa3, 0xbe, 0x12, 0xca, 0x99, 0xbe,
  0xf1, 0x07, 0x52, 0x40, 0x0e, 0x04, 0x9e, 0xbe, 0x01, 0xff, 0x67, 0x3e,
  0xd1, 0xfd, 0x33, 0xbe, 0x7e, 0x01, 0xab, 0x3e, 0x17, 0x80, 0x5c, 0x3e,
  0xa0, 0x04, 0x45, 0xbd, 0x06, 0xde, 0xb0, 0xbe, 0xc4, 0xf2, 0x04, 0x3e,
  0xa9, 0x43, 0xb5, 0xbe, 0xb2, 0x23, 0x1a, 0x3e, 0x37, 0xd8, 0x28, 0xbe,
  0xd5, 0xd6, 0x6c, 0xbe, 0xd9, 0x6a, 0x5a, 0xbe, 0x66, 0xb4, 0xd4, 0xbd,
  0x6d, 0x87, 0x8c, 0xbe, 0xc7, 0xb0, 0x50, 0x40, 0xff, 0x12, 0x0c, 0xbe,
  0xae, 0x30, 0x6a, 0x3e, 0x1a, 0xed, 0x04, 0xbe, 0xb3, 0x18, 0xbf, 0x3e,
  0x8e, 0x7f, 0xa1, 0xbd, 0x00, 0xc3, 0x14, 0xbd, 0x54, 0xc8, 0xf4, 0xbe,
  0x8d, 0xe0, 0x21, 0xbd, 0xec, 0xd5, 0x6c, 0x3e, 0x84, 0xd9, 0x33, 0x3e,
  0xa0, 0xfa, 0x27, 0xbd, 0xcc, 0x7c, 0x1a, 0xbe, 0x05, 0x38, 0xf2, 0x3d,
  0x93, 0x5a, 0x6a, 0x3d, 0x1b, 0x84, 0xa9, 0xbe, 0x5e, 0xbf, 0x8e, 0x3e,
  0x4d, 0x4a, 0xba, 0xbe, 0x65, 0x83, 0x93, 0x3d, 0x29, 0xc7, 0xb2, 0xbe,
  0xa2, 0xd6, 0x8e, 0x3e, 0xd7, 0x93, 0x8e, 0xbe, 0x23, 0x15, 0xa1, 0x3b,
  0xa9, 0x86, 0x4d, 0xbe, 0x64, 0x3e, 0x90, 0xbc, 0xc3, 0xb1, 0x8d, 0x3d,
  0x79, 0x7b, 0xc6, 0x3d, 0xd1, 0x4c, 0x0c, 0x3d, 0xa5, 0x51, 0x95, 0xbd,
  0xca, 0x1c, 0x4a, 0xbd, 0x53, 0x35, 0x3f, 0x3e, 0xd2, 0xed, 0xcc, 0xbe,
  0x33, 0x2d, 0x81, 0x3d, 0xc5, 0xec, 0xad, 0xba, 0xdc, 0xa8, 0x48, 0xbf,
  0x28, 0xbd, 0x89, 0xbd, 0x4b, 0x78, 0x8c, 0xbe, 0xef, 0x14, 0x88, 0x3e,
  0xd0, 0x78, 0x9e, 0x3c, 0x04, 0x53, 0xae, 0x3d, 0x3f, 0x76, 0x32, 0x3e,
  0xaf, 0x60, 0xd7, 0xbd, 0x20, 0xa1, 0xa0, 0xbe, 0x2e, 0x15, 0x98, 0x3d,
  0x67, 0x8f, 0x15, 0xbe, 0xf2, 0x02, 0x28, 0xbe, 0xcf, 0x99, 0xcc, 0x3d,
  0x76, 0xe1, 0xc4, 0xbc, 0x8f, 0x0d, 0x5f, 0xbf, 0x89, 0xa3, 0xed, 0x3d,
  0x68, 0xa2, 0xea, 0x3d, 0xe7, 0x78, 0x33, 0x3e, 0x42, 0x57, 0xce, 0xbd,
  0xbe, 0x4e, 0xd8, 0xbd, 0x8b, 0x80, 0xfe, 0xbd, 0x9e, 0x08, 0x31, 0xbc,
  0x84, 0x54, 0x0f, 0x3e, 0x19, 0xcf, 0x94, 0x3d, 0x7e, 0xfe, 0x89, 0x3c,
  0x8d, 0x06, 0x85, 0xbd, 0xae, 0x90, 0x32, 0xbe, 0x76, 0x15, 0x1b, 0xbe,
  0xd1, 0x4f, 0x3d, 0xbe, 0x2c, 0xbe, 0x77, 0x3d, 0xb2, 0x41, 0x46, 0xbf,
  0x2e, 0xe9, 0x2c, 0x3e, 0x85, 0xbd, 0xa3, 0x3d, 0x2e, 0xdf, 0x46, 0x3e,
  0x6b, 0xf7, 0x9a, 0x3c, 0x0c, 0x54, 0x46, 0xbd, 0xc0, 0x11, 0x67, 0xbd,
  0x0e, 0x79, 0xda, 0x3c, 0x9c, 0x22, 0xcb, 0x3d, 0x2f, 0x9c, 0x0f, 0xbe,
  0x68, 0x73, 0x4b, 0x3e, 0x05, 0x40, 0xb2, 0x3c, 0x97, 0x7d, 0xd4, 0xbd,
  0xba, 0x55, 0x0e, 0xb9, 0xf3, 0xc0, 0x0f, 0xbe, 0xc0, 0x04, 0xd9, 0x3d,
  0x7a, 0xfd, 0x3b, 0xbf, 0xb6, 0x7e, 0x44, 0x3e, 0xb3, 0x19, 0xc8, 0x3c,
  0x8c, 0xcd, 0x89, 0xbd, 0xb8, 0x7a, 0xc4, 0x3e, 0xde, 0x6f, 0x89, 0xbd,
  0x74, 0xda, 0xb1, 0x3d, 0xa1, 0x48, 0x05, 0x3d, 0xbb, 0xf4, 0x09, 0x3e,
  0xaf, 0xac, 0xda, 0xbd, 0x5c, 0x0a, 0x15, 0xbe, 0x8c, 0x22, 0x66, 0x3d,
  0xbd, 0xa6, 0x76, 0xbe, 0x35, 0xdc, 0x83, 0xbd, 0xbb, 0x22, 0x02, 0xbe,
  0x77, 0x91, 0x8b, 0x3d, 0x69, 0x04, 0x49, 0xbf, 0x3a, 0x6b, 0x7c, 0xbe,
  0xef, 0x66, 0x0f, 0xbe, 0xd1, 0x2b, 0xaf, 0xbe, 0x8e, 0x9c, 0xce, 0x3e,
  0xe9, 0x02, 0xb3, 0x3c, 0x94, 0x2f, 0x34, 0x3b, 0x9c, 0xc8, 0x81, 0x3d,
  0x09, 0x04, 0x64, 0x3e, 0xa9, 0x7d, 0x01, 0x3d, 0x7f, 0xd3, 0x16, 0xbf,
  0x04, 0x06, 0x94, 0x3d, 0x25, 0xa6, 0x0d, 0xbf, 0xbf, 0xde, 0xd5, 0xbd,
  0x56, 0x5e, 0x2f, 0xbd, 0x01, 0xfe, 0x8b, 0xbc, 0x7b, 0x3d, 0x28, 0xbf,
  0xdc, 0x60, 0x18, 0x3e, 0x94, 0xc2, 0x1c, 0xbf, 0xca, 0x9f, 0x3b, 0xbe,
  0xcb, 0xce, 0xff, 0x3c, 0x65, 0x52, 0xb8, 0x3e, 0x3c, 0xc5, 0xc1, 0x3c,
  0xdb, 0xee, 0x93, 0x3d, 0xb2, 0xe1, 0x63, 0x3e, 0x5a, 0xef, 0x51, 0xbe,
  0x98, 0x39, 0xa0, 0xbe, 0x56, 0x53, 0x22, 0x3d, 0x4c, 0x4f, 0x86, 0xbe,
  0xaf, 0x27, 0x74, 0xbe, 0xf8, 0x88, 0x01, 0x3e, 0x90, 0x3e, 0x7c, 0xbb,
  0x54, 0xa0, 0x91, 0xbf, 0x35, 0x77, 0x6b, 0xbe, 0xbe, 0x36, 0x18, 0xbe,
  0x5c, 0x18, 0x5d, 0xbe, 0xea, 0x0d, 0xa2, 0xbd, 0xaf, 0x0d, 0xf4, 0x3e,
  0x98, 0x43, 0xea, 0x3d, 0x7c, 0x83, 0x18, 0x3e, 0xc7, 0x6c, 0x83, 0xbd,
  0x76, 0xc7, 0x33, 0xbd, 0x46, 0xc1, 0x87, 0xbf, 0xea, 0x52, 0x26, 0x3c,
  0xe2, 0x5c, 0x32, 0xbf, 0x1b, 0xdb, 0xe7, 0xbe, 0xfc, 0xff, 0xe8, 0x3d,
  0x89, 0xa1, 0x5c, 0x3d, 0x89, 0x55, 0x51, 0x3f, 0x06, 0x53, 0xc3, 0xbe,
  0xb4, 0x4a, 0x18, 0x3d, 0x94, 0x33, 0x39, 0xbe, 0xd9, 0x8f, 0x02, 0x3f,
  0x8d, 0xee, 0x95, 0x3e, 0xe7, 0x73, 0xa5, 0xbd, 0x62, 0x6b, 0x1e, 0x3e,
  0xbd, 0xa5, 0x82, 0x3e, 0x1a, 0xb1, 0x04, 0x3e, 0x6a, 0xc6, 0xd0, 0xbe,
  0x3c, 0x95, 0x14, 0x3e, 0x3e, 0x52, 0x81, 0xbd, 0x05, 0xc6, 0x48, 0xbd,
  0x1a, 0x22, 0x20, 0xbe, 0x21, 0x07, 0x05, 0xbe, 0x85, 0x70, 0xaf, 0x3f,
  0x9a, 0xeb, 0x25, 0xbd, 0xc6, 0x85, 0xa6, 0x3d, 0x34, 0x8a, 0x44, 0xbe,
  0x2c, 0x7b, 0xb8, 0x3e, 0x97, 0x94, 0xaa, 0x3e, 0xea, 0x38, 0xc1, 0x3c,
  0x23, 0x56, 0x13, 0xbe, 0x32, 0xd7, 0x23, 0x3e, 0xd6, 0xff, 0x41, 0xbe,
  0x31, 0xf8, 0xde, 0xbd, 0xa3, 0xe4, 0xe6, 0xbe, 0x38, 0xa2, 0x46, 0x3e,
  0x72, 0x14, 0x8d, 0xbd, 0xf0, 0xb5, 0x3e, 0xbe, 0xe9, 0xbe, 0x8b, 0x3d,
  0x3e, 0xbe, 0xbc, 0x3f, 0xf1, 0x16, 0x77, 0x3e, 0x08, 0x12, 0x81, 0x3e,
  0x77, 0x23, 0x3e, 0xbe, 0x38, 0x4d, 0x95, 0x3e, 0x74, 0xde, 0xc2, 0x3e,
  0xa6, 0xc4, 0x0b, 0xbe, 0x56, 0x75, 0x5b, 0xbd, 0xdf, 0x56, 0xd5, 0x3e,
  0x4f, 0x87, 0x49, 0xbd, 0x7c, 0xe5, 0x16, 0xbe, 0xda, 0x34, 0xc5, 0xbd,
  0x34, 0xfa, 0x1a, 0x3e, 0xfb, 0xe6, 0xda, 0x3c, 0xbc, 0x8a, 0x78, 0x3d,
  0x4a, 0xab, 0xda, 0x3d, 0x5f, 0xf4, 0xd6, 0x3f, 0x7d, 0xda, 0x91, 0xbe,
  0xae, 0xc5, 0x72, 0x3e, 0xaf, 0x66, 0xfa, 0xbd, 0xbe, 0x19, 0x23, 0x3e,
  0x29, 0xe2, 0xb5, 0x3e, 0x6f, 0x7d, 0xd6, 0xbd, 0x7c, 0xc9, 0x3b, 0xbc,
  0xbc, 0xf9, 0xaf, 0x3e, 0x00, 0x2d, 0xec, 0xbd, 0xd6, 0xf9, 0xe4, 0xbe,
  0xe3, 0xe0, 0xc6, 0xbd, 0xa4, 0xec, 0xca, 0xbd, 0x6a, 0x5a, 0xf5, 0x3c,
  0x96, 0x7a, 0xdc, 0xbd, 0xf1, 0x0b, 0x54, 0x3e, 0x59, 0x9f, 0xc3, 0x3f,
  0x50, 0x18, 0x04, 0x3e, 0xb0, 0xfb, 0x4a, 0xbe, 0x1e, 0xd7, 0xd8, 0xbe,
  0x9e, 0x37, 0x39, 0x3f, 0x0b, 0xb5, 0x50, 0x3e, 0x34, 0x0c, 0x93, 0xbc,
  0xfe, 0x44, 0x83, 0x3e, 0xe6, 0xf1, 0x6f, 0x3e, 0x73, 0xa9, 0x44, 0xbe,
  0xf9, 0xc2, 0xa9, 0xbe, 0xc6, 0xee, 0x94, 0x3d, 0x03, 0xea, 0x26, 0x3d,
  0x5e, 0xae, 0x95, 0xbd, 0x75, 0x45, 0x57, 0xbe, 0x68, 0x6f, 0xf4, 0x3c,
  0x04, 0x85, 0xd6, 0x3f, 0x39, 0x09, 0x3b, 0xbe, 0x34, 0xff, 0xd8, 0xbc,
  0xff, 0x5d, 0x41, 0xbd, 0x8c, 0xab, 0x18, 0x3f, 0x7a, 0x56, 0x05, 0x3f,
  0xf0, 0x16, 0x2e, 0xbe, 0xc6, 0x54, 0x97, 0x3d, 0x9c, 0xbf, 0xb7, 0x3e,
  0x06, 0x0c, 0x60, 0xbe, 0xfa, 0xbd, 0xd4, 0xbe, 0xfd, 0x07, 0x24, 0x3d,
  0x8b, 0x54, 0xb2, 0xbc, 0x0e, 0xda, 0x2c, 0xbe, 0xd1, 0x91, 0x54, 0x3e,
  0x8b, 0x7d, 0xff, 0x3d, 0xab, 0xe2, 0x59, 0xbe, 0x6e, 0x68, 0x41, 0x3d,
  0x88, 0x58, 0x46, 0xbe, 0x3a, 0x6c, 0x8e, 0xbe, 0xec, 0xbb, 0xe0, 0x3d,
  0xf2, 0x14, 0x77, 0x3d, 0xc7, 0x20, 0x33, 0xbe, 0x25, 0x0f, 0x63, 0xbe,
  0x1b, 0xd0, 0x90, 0x3e, 0x04, 0xd6, 0x9f, 0x3d, 0xf7, 0x34, 0x9a, 0xbd,
  0xf1, 0xfd, 0xb3, 0xbd, 0x97, 0x17, 0xa3, 0xbd, 0xa6, 0x52, 0xa6, 0xbe,
  0x55, 0xf1, 0xa2, 0x3d, 0xe1, 0x7d, 0xba, 0x3d, 0xad, 0x65, 0x9e, 0x3f,
  0x0c, 0x14, 0xa2, 0x3d, 0xcf, 0x1f, 0x8b, 0x3d, 0x50, 0xb2, 0xa8, 0xbe,
  0xaa, 0x7c, 0xfe, 0x3e, 0xa7, 0x6f, 0xbf, 0xbe, 0x09, 0xfd, 0xb7, 0xbe,
  0x38, 0x73, 0x83, 0xbd, 0xee, 0xc3, 0x29, 0xbe, 0x60, 0x39, 0x05, 0x3e,
  0x20, 0x69, 0x2a, 0xbd, 0x43, 0x53, 0x6a, 0xba, 0x7a, 0xe0, 0xa0, 0xbd,
  0xee, 0xf2, 0x68, 0xbd, 0xaa, 0x00, 0x6f, 0x3d, 0xc0, 0xd2, 0xa8, 0xbd,
  0xc2, 0x2b, 0x0b, 0x40, 0x46, 0x09, 0x63, 0xbd, 0xc0, 0x4a, 0x1b, 0x3e,
  0xf0, 0x54, 0xb7, 0xbd, 0x5a, 0x69, 0x7a, 0x3e, 0xff, 0x93, 0xa3, 0x3d,
  0x06, 0xc1, 0xad, 0xbe, 0x04, 0x71, 0x4b, 0xbe, 0x43, 0xd9, 0x1b, 0x3d,
  0xe7, 0xca, 0x6b, 0x3d, 0xb1, 0xb1, 0x37, 0x3e, 0xdb, 0x50, 0xa8, 0x3c,
  0x3c, 0xd6, 0x2b, 0x3d, 0x41, 0xec, 0x02, 0xbd, 0xc7, 0xe6, 0x8f, 0xbb,
  0x5a, 0x70, 0x53, 0x3d, 0x9d, 0x08, 0x2f, 0x40, 0xad, 0x05, 0x0d, 0x3d,
  0xfc, 0x45, 0x59, 0x3e, 0xeb, 0x27, 0x79, 0x3d, 0x6a, 0xe2, 0x9f, 0x3e,
  0x9d, 0x97, 0x09, 0xbe, 0x33, 0x18, 0x7c, 0xbe, 0x1c, 0x62, 0x1f, 0xbc,
  0x08, 0x1b, 0x12, 0xbe, 0x09, 0x5b, 0xb9, 0x3d, 0xaf, 0x17, 0xce, 0x3d,
  0xe6, 0xf5, 0x83, 0x3d, 0x2a, 0x7f, 0x89, 0x3c, 0xdd, 0x7e, 0xe2, 0x3b,
  0x26, 0x44, 0x83, 0xbd, 0x8e, 0xde, 0xe7, 0xbc, 0x69, 0x02, 0x2e, 0x40,
  0x74, 0xfb, 0x59, 0xbb, 0xd2, 0xe3, 0x8c, 0x3d, 0x97, 0x51, 0x3a, 0xbe,
  0x51, 0x7f, 0xdd, 0xbc, 0x97, 0xa5, 0x67, 0xbe, 0x7e, 0xe1, 0xd9, 0xbe,
  0x22, 0x1c, 0x31, 0x3e, 0x8a, 0x64, 0x4b, 0x3c, 0x49, 0xa7, 0x87, 0x3d,
  0x67, 0x3b, 0xc7, 0xbd, 0xe4, 0x8d, 0xde, 0x3c, 0xad, 0xab, 0xdb, 0xbc,
  0xd8, 0x1e, 0x04, 0x3d, 0x29, 0x95, 0xbd, 0xbd, 0x21, 0xe5, 0x3e, 0xbd,
  0x6a, 0x2e, 0x20, 0x40, 0x3c, 0x32, 0xad, 0x3d, 0x6c, 0xc7, 0x0e, 0x3e,
  0x4b, 0xb7, 0x67, 0xbe, 0xd1, 0x32, 0x2d, 0xbc, 0x24, 0xb8, 0x04, 0x3d,
  0x38, 0xde, 0x76, 0xbe, 0x47, 0x60, 0x65, 0xbd, 0xb2, 0x7d, 0xc2, 0xbd,
  0x7c, 0x0f, 0x48, 0x3d, 0x24, 0x38, 0xf3, 0xbc, 0x5c, 0x19, 0x0b, 0x3d,
  0xe8, 0x22, 0x37, 0xbc, 0x79, 0x6a, 0x37, 0x3b, 0xc7, 0xcf, 0x50, 0xbd,
  0xac, 0x15, 0xf5, 0xbc, 0xd0, 0x17, 0xc8, 0x3f, 0xcb, 0xfa, 0x5f, 0x3c,
  0x90, 0x06, 0x2b, 0x3d, 0x70, 0x4d, 0x4f, 0xbd, 0x45, 0xfb, 0xde, 0x3e,
  0x1e, 0xd4, 0xb5, 0x3d, 0xe1, 0x48, 0x77, 0xbd, 0x44, 0x56, 0x05, 0xbe,
  0xe6, 0x2b, 0xb1, 0xbb, 0x07, 0x1e, 0x86, 0x3e, 0xd1, 0xd2, 0x92, 0x3c,
  0x50, 0x50, 0x5f, 0x3d, 0x81, 0xb2, 0x9b, 0xbd, 0xe0, 0x8c, 0x53, 0xbd,
  0x6c, 0x9d, 0x5b, 0xbd, 0xc7, 0xbb, 0x0e, 0xbd, 0x00, 0x4f, 0x5d, 0x3e,
  0x9b, 0xd8, 0x2c, 0xbd, 0xb3, 0xb5, 0xa3, 0x3d, 0x37, 0x42, 0x24, 0xbe,
  0xca, 0x1a, 0xbc, 0x3e, 0xa3, 0xeb, 0x92, 0x3d, 0x12, 0x3e, 0xd9, 0xbd,
  0xea, 0x95, 0x64, 0x3d, 0x55, 0xdd, 0x16, 0xbd, 0x6f, 0xde, 0xc9, 0x3d,
  0x77, 0x64, 0x8f, 0xba, 0x3f, 0xb3, 0xd2, 0xbc, 0xd4, 0xfb, 0x2c, 0xbb,
  0x69, 0xbf, 0xe8, 0xbd, 0xc1, 0xc1, 0x18, 0x3e, 0x72, 0x70, 0x3a, 0xbd,
  0x46, 0xfe, 0xff, 0xff, 0x10, 0x00, 0x00, 0x00, 0x05, 0x00, 0x00, 0x00,
  0x14, 0x00, 0x00, 0x00, 0x2c, 0x00, 0x00, 0x00, 0x02, 0x00, 0x00, 0x00,
  0x10, 0x00, 0x00, 0x00, 0x70, 0x00, 0x00, 0x00, 0x17, 0x00, 0x00, 0x00,
  0x73, 0x65, 0x71, 0x75, 0x65, 0x6e, 0x74, 0x69, 0x61, 0x6c, 0x2f, 0x64,
  0x65, 0x6e, 0x73, 0x65, 0x2f, 0x4d, 0x61, 0x74, 0x4d, 0x75, 0x6c, 0x00,
  0x34, 0xfe, 0xff, 0xff, 0x2a, 0xff, 0xff, 0xff, 0x04, 0x00, 0x00, 0x00,
  0x08, 0x00, 0x00, 0x00, 0xff, 0xff, 0xff, 0xff, 0x70, 0x00, 0x00, 0x00,
  0x00, 0x00, 0x0e, 0x00, 0x18, 0x00, 0x08, 0x00, 0x07, 0x00, 0x0c, 0x00,
  0x10, 0x00, 0x14, 0x00, 0x0e, 0x00, 0x00, 0x00, 0x00, 0x00, 0x00, 0x02,
  0x10, 0x00, 0x00, 0x00, 0x04, 0x00, 0x00, 0x00, 0x10, 0x00, 0x00, 0x00,
  0x2c, 0x00, 0x00, 0x00, 0x01, 0x00, 0x00, 0x00, 0x02, 0x00, 0x00, 0x00,
  0x18, 0x00, 0x00, 0x00, 0x73, 0x65, 0x71, 0x75, 0x65, 0x6e, 0x74, 0x69,
  0x61, 0x6c, 0x2f, 0x66, 0x6c, 0x61, 0x74, 0x74, 0x65, 0x6e, 0x2f, 0x43,
  0x6f, 0x6e, 0x73, 0x74, 0x00, 0x00, 0x00, 0x00, 0x9c, 0xfe, 0xff, 0xff,
  0x92, 0xff, 0xff, 0xff, 0x04, 0x00, 0x00, 0x00, 0x10, 0x00, 0x00, 0x00,
  0x18, 0x94, 0x3c, 0xc0, 0x61, 0xfc, 0x37, 0x40, 0xc7, 0x62, 0xa6, 0xbf,
  0x93, 0x9a, 0x90, 0xbf, 0x0a, 0xff, 0xff, 0xff, 0x10, 0x00, 0x00, 0x00,
  0x03, 0x00, 0x00, 0x00, 0x10, 0x00, 0x00, 0x00, 0x3c, 0x00, 0x00, 0x00,
  0x01, 0x00, 0x00, 0x00, 0x04, 0x00, 0x00, 0x00, 0x29, 0x00, 0x00, 0x00,
  0x73, 0x65, 0x71, 0x75, 0x65, 0x6e, 0x74, 0x69, 0x61, 0x6c, 0x2f, 0x64,
  0x65, 0x6e, 0x73, 0x65, 0x5f, 0x31, 0x2f, 0x42, 0x69, 0x61, 0x73, 0x41,
  0x64, 0x64, 0x2f, 0x52, 0x65, 0x61, 0x64, 0x56, 0x61, 0x72, 0x69, 0x61,
  0x62, 0x6c, 0x65, 0x4f, 0x70, 0x00, 0x00, 0x00, 0x60, 0xff, 0xff, 0xff,
  0x00, 0x00, 0x06, 0x00, 0x08, 0x00, 0x04, 0x00, 0x06, 0x00, 0x00, 0x00,
  0x04, 0x00, 0x00, 0x00, 0x40, 0x00, 0x00, 0x00, 0x36, 0x5a, 0x14, 0x3f,
  0x0b, 0x2e, 0x0e, 0x3f, 0xa6, 0x65, 0x3b, 0x40, 0xf0, 0xa2, 0x5a, 0x3f,
  0xed, 0xac, 0xe9, 0x3f, 0x20, 0xa5, 0xaa, 0x3f, 0xb9, 0x9d, 0x08, 0x3f,
  0xee, 0xda, 0xd5, 0xbe, 0xa2, 0xcc, 0x3f, 0x3f, 0x4d, 0xa0, 0x2f, 0x40,
  0x95, 0x55, 0xc2, 0x3e, 0x79, 0x0c, 0xbc, 0x3e, 0x11, 0xc4, 0x37, 0x3f,
  0xa1, 0x1b, 0x40, 0x40, 0x51, 0x82, 0x00, 0x3f, 0x28, 0x89, 0x5c, 0x40,
  0xae, 0xff, 0xff, 0xff, 0x10, 0x00, 0x00, 0x00, 0x02, 0x00, 0x00, 0x00,
  0x10, 0x00, 0x00, 0x00, 0x3c, 0x00, 0x00, 0x00, 0x01, 0x00, 0x00, 0x00,
  0x10, 0x00, 0x00, 0x00, 0x27, 0x00, 0x00, 0x00, 0x73, 0x65, 0x71, 0x75,
  0x65, 0x6e, 0x74, 0x69, 0x61, 0x6c, 0x2f, 0x64, 0x65, 0x6e, 0x73, 0x65,
  0x2f, 0x42, 0x69, 0x61, 0x73, 0x41, 0x64, 0x64, 0x2f, 0x52, 0x65, 0x61,
  0x64, 0x56, 0x61, 0x72, 0x69, 0x61, 0x62, 0x6c, 0x65, 0x4f, 0x70, 0x00,
  0x04, 0x00, 0x06, 0x00, 0x04, 0x00, 0x00, 0x00, 0x00, 0x00, 0x0e, 0x00,
  0x14, 0x00, 0x04, 0x00, 0x00, 0x00, 0x08, 0x00, 0x0c, 0x00, 0x10, 0x00,
  0x0e, 0x00, 0x00, 0x00, 0x10, 0x00, 0x00, 0x00, 0x01, 0x00, 0x00, 0x00,
  0x1c, 0x00, 0x00, 0x00, 0x2c, 0x00, 0x00, 0x00, 0x04, 0x00, 0x00, 0x00,
  0x01, 0x00, 0x00, 0x00, 0x40, 0x00, 0x00, 0x00, 0x03, 0x00, 0x00, 0x00,
  0x01, 0x00, 0x00, 0x00, 0x0c, 0x00, 0x00, 0x00, 0x63, 0x6f, 0x6e, 0x76,
  0x32, 0x64, 0x5f, 0x69, 0x6e, 0x70, 0x75, 0x74, 0x00, 0x00, 0x00, 0x00,
  0xfc, 0xff, 0xff, 0xff, 0x04, 0x00, 0x04, 0x00, 0x04, 0x00, 0x00, 0x00


  // Paste the data of the char array in `src/model.cc` here

};


unsigned int model_tflite_len = 12384;// Fill the int in `src/model.cc` here